{
  "version": "1.0",
  "truncation": null,
  "padding": null,
  "added_tokens": [
    {
      "id": 0,
      "content": "[PAD]",
      "single_word": false,
      "lstrip": false,
      "rstrip": false,
      "normalized": false,
      "special": true
    },
    {
      "id": 1,
      "content": "[UNK]",
      "single_word": false,
      "lstrip": false,
      "rstrip": false,
      "normalized": false,
      "special": true
    },
    {
      "id": 2,
      "content": "[CLS]",
      "single_word": false,
      "lstrip": false,
      "rstrip": false,
      "normalized": false,
      "special": true
    },
    {
      "id": 3,
      "content": "[SEP]",
      "single_word": false,
      "lstrip": false,
      "rstrip": false,
      "normalized": false,
      "special": true
    },
    {
      "id": 4,
      "content": "[MASK]",
      "single_word": false,
      "lstrip": false,
      "rstrip": false,
      "normalized": false,
      "special": true
    }
  ],
  "normalizer": {
    "type": "BertNormalizer",
    "clean_text": true,
    "handle_chinese_chars": true,
    "strip_accents": null,
    "lowercase": true
  },
  "pre_tokenizer": {
    "type": "BertPreTokenizer"
  },
  "post_processor": {
    "type": "TemplateProcessing",
    "single": [
      {
        "SpecialToken": {
          "id": "[CLS]",
          "type_id": 0
        }
      },
      {
        "Sequence": {
          "id": "A",
          "type_id": 0
        }
      },
      {
        "SpecialToken": {
          "id": "[SEP]",
          "type_id": 0
        }
      }
    ],
    "pair": [
      {
        "SpecialToken": {
          "id": "[CLS]",
          "type_id": 0
        }
      },
      {
        "Sequence": {
          "id": "A",
          "type_id": 0
        }
      },
      {
        "SpecialToken": {
          "id": "[SEP]",
          "type_id": 0
        }
      },
      {
        "Sequence": {
          "id": "B",
          "type_id": 1
        }
      },
      {
        "SpecialToken": {
          "id": "[SEP]",
          "type_id": 1
        }
      }
    ],
    "special_tokens": {
      "[CLS]": {
        "id": "[CLS]",
        "ids": [2],
        "tokens": ["[CLS]"]
      },
      "[SEP]": {
        "id": "[SEP]",
        "ids": [3],
        "tokens": ["[SEP]"]
      }
    }
  },
  "decoder": {
    "type": "WordPiece",
    "prefix": "##",
    "cleanup": true
  },
  "model": {
    "type": "WordPiece",
    "unk_token": "[UNK]",
    "continuing_subword_prefix": "##",
    "max_input_chars_per_word": 100,
    "vocab": {
      "[PAD]": 0,
      "[UNK]": 1,
      "[CLS]": 2,
      "[SEP]": 3,
      "[MASK]": 4,
      "accreditation": 5,
      "june": 6,
      "nunez": 7,
      "indo": 8,
      "easier": 9,
      "ticket": 10,
      "uganda": 11,
      "##sti": 12,
      "should": 13,
      "grass": 14,
      "photography": 15,
      "medication": 16,
      "opportunities": 17,
      "##inations": 18,
      "##貝": 19,
      "moving": 20,
      "##f": 21,
      "花": 22,
      "managed": 23,
      "##ciation": 24,
      "reconcile": 25,
      "jian": 26,
      "casa": 27,
      "begging": 28,
      "producing": 29,
      "instruction": 30,
      "russell": 31,
      "##rim": 32,
      "industrial": 33,
      "parisian": 34,
      "village": 35,
      "子": 36,
      "##ard": 37,
      "women": 38,
      "##tering": 39,
      "guido": 40,
      "prove": 41,
      "dances": 42,
      "##eck": 43,
      "scene": 44,
      "##sk": 45,
      "kern": 46,
      "1865": 47,
      "embracing": 48,
      "angie": 49,
      "32": 50,
      "wind": 51,
      "codes": 52,
      "requested": 53,
      "##香": 54,
      "##ichi": 55,
      "ariel": 56,
      "continued": 57,
      "emory": 58,
      "##load": 59,
      "sight": 60,
      "mill": 61,
      "##⇒": 62,
      "##owa": 63,
      "western": 64,
      "1649": 65,
      "diving": 66,
      "##osa": 67,
      "bless": 68,
      "junk": 69,
      "influences": 70,
      "##ies": 71,
      "punta": 72,
      "215": 73,
      "1664": 74,
      "##cera": 75,
      "binding": 76,
      "affiliated": 77,
      "edith": 78,
      "##berg": 79,
      "like": 80,
      "1967": 81,
      "bed": 82,
      "melvin": 83,
      "languages": 84,
      "eco": 85,
      "sponsor": 86,
      "because": 87,
      "ensures": 88,
      "##quist": 89,
      "feeling": 90,
      "241": 91,
      "billy": 92,
      "confirms": 93,
      "catch": 94,
      "devices": 95,
      "wise": 96,
      "labels": 97,
      "trucks": 98,
      "##を": 99,
      "##ful": 100,
      "schedule": 101,
      "amos": 102,
      "benton": 103,
      "billions": 104,
      "ri": 105,
      "401": 106,
      "organic": 107,
      "your": 108,
      "fisher": 109,
      "##bir": 110,
      "pending": 111,
      "##cher": 112,
      "##द": 113,
      "mug": 114,
      "##feng": 115,
      "##ulla": 116,
      "##vna": 117,
      "overcome": 118,
      "holdings": 119,
      "battista": 120,
      "ᅲ": 121,
      "drama": 122,
      "50": 123,
      "terry": 124,
      "タ": 125,
      "emerald": 126,
      "mira": 127,
      "166": 128,
      "西": 129,
      "business": 130,
      "diesel": 131,
      "##naire": 132,
      "ᵍ": 133,
      "wand": 134,
      "domingo": 135,
      "marguerite": 136,
      "downloaded": 137,
      "##lip": 138,
      "##scia": 139,
      "##水": 140,
      "chief": 141,
      "assuming": 142,
      "ノ": 143,
      "stern": 144,
      "##ि": 145,
      "gala": 146,
      "奈": 147,
      "roads": 148,
      "cp": 149,
      "##ო": 150,
      "determined": 151,
      "##cturing": 152,
      "centres": 153,
      "bien": 154,
      "rt": 155,
      "pediatric": 156,
      "238": 157,
      "grown": 158,
      "##iya": 159,
      "battery": 160,
      "##rac": 161,
      "##rf": 162,
      "brute": 163,
      "working": 164,
      "leto": 165,
      "parent": 166,
      "influential": 167,
      "##rey": 168,
      "ratings": 169,
      "creating": 170,
      "connectivity": 171,
      "−": 172,
      "137": 173,
      "sees": 174,
      "forgiveness": 175,
      "mounted": 176,
      "1761": 177,
      "710": 178,
      "vast": 179,
      "2014": 180,
      "berry": 181,
      "##or": 182,
      "denim": 183,
      "1898": 184,
      "batteries": 185,
      "##ajan": 186,
      "suit": 187,
      "sai": 188,
      "##州": 189,
      "##ley": 190,
      "realized": 191,
      "chorus": 192,
      "noise": 193,
      "##bber": 194,
      "##歌": 195,
      "lame": 196,
      "james": 197,
      "pennsylvania": 198,
      "second": 199,
      "critical": 200,
      "complementary": 201,
      "##dam": 202,
      "panorama": 203,
      "##mer": 204,
      "ride": 205,
      "ngos": 206,
      "allowed": 207,
      "mandarin": 208,
      "pristine": 209,
      "facilitate": 210,
      "editions": 211,
      "jungle": 212,
      "dies": 213,
      "cell": 214,
      "thoughts": 215,
      "##rre": 216,
      "1605": 217,
      "rescue": 218,
      "##adia": 219,
      "下": 220,
      "challenge": 221,
      "##zi": 222,
      "##is": 223,
      "passes": 224,
      "juarez": 225,
      "1747": 226,
      "##rigues": 227,
      "maze": 228,
      "##iba": 229,
      "dirk": 230,
      "##graph": 231,
      "ब": 232,
      "ok": 233,
      "vita": 234,
      "##backs": 235,
      "##空": 236,
      "fuck": 237,
      "##cal": 238,
      "balanced": 239,
      "guaranteed": 240,
      "grape": 241,
      "producer": 242,
      "南": 243,
      "##ped": 244,
      "behind": 245,
      "handwriting": 246,
      "##alic": 247,
      "##liche": 248,
      "##青": 249,
      "##cek": 250,
      "##turn": 251,
      "argentina": 252,
      "retired": 253,
      "topic": 254,
      "mascot": 255,
      "moe": 256,
      "karim": 257,
      "to": 258,
      "cod": 259,
      "dozen": 260,
      "##tter": 261,
      "percy": 262,
      "saves": 263,
      "portsmouth": 264,
      "unity": 265,
      "engraving": 266,
      "و": 267,
      "##logram": 268,
      "tv": 269,
      "##ski": 270,
      "rue": 271,
      "##arian": 272,
      "qui": 273,
      "cold": 274,
      "fusion": 275,
      "narratives": 276,
      "users": 277,
      "destruction": 278,
      "ports": 279,
      "##nis": 280,
      "this": 281,
      "##代": 282,
      "##pack": 283,
      "pieter": 284,
      "reached": 285,
      "93": 286,
      "marcelo": 287,
      "salzburg": 288,
      "analyze": 289,
      "michele": 290,
      "251": 291,
      "mckenzie": 292,
      "flights": 293,
      "cl": 294,
      "internet": 295,
      "101": 296,
      "pi": 297,
      "israeli": 298,
      "ives": 299,
      "chatham": 300,
      "himself": 301,
      "mathew": 302,
      "##balance": 303,
      "global": 304,
      "##nh": 305,
      "delay": 306,
      "##cino": 307,
      "jokes": 308,
      "sutton": 309,
      "congestion": 310,
      "gustave": 311,
      "##oc": 312,
      "##nnis": 313,
      "important": 314,
      "##tale": 315,
      "balcony": 316,
      "malay": 317,
      "garment": 318,
      "tod": 319,
      "shores": 320,
      "heritage": 321,
      "jj": 322,
      "##ா": 323,
      "speed": 324,
      "referring": 325,
      "transaction": 326,
      "widespread": 327,
      "abbey": 328,
      "eta": 329,
      "evergreen": 330,
      "enterprises": 331,
      "sac": 332,
      "deputy": 333,
      "##ա": 334,
      "undergo": 335,
      "standardized": 336,
      "##mity": 337,
      "##berman": 338,
      "##lene": 339,
      "stake": 340,
      "##vor": 341,
      "mexican": 342,
      "##el": 343,
      "syndrome": 344,
      "institut": 345,
      "skier": 346,
      "pool": 347,
      "beforehand": 348,
      "reflective": 349,
      "##ী": 350,
      "grill": 351,
      "caitlin": 352,
      "##tin": 353,
      "wilson": 354,
      "consolidated": 355,
      "sufi": 356,
      "quad": 357,
      "walton": 358,
      "ark": 359,
      "reside": 360,
      "homme": 361,
      "pilot": 362,
      "##mple": 363,
      "abroad": 364,
      "1876": 365,
      "sticking": 366,
      "##wide": 367,
      "campaign": 368,
      "aesthetic": 369,
      "compassionate": 370,
      "impacted": 371,
      "nec": 372,
      "foul": 373,
      "accurate": 374,
      "##ℝ": 375,
      "anyone": 376,
      "programs": 377,
      "vijay": 378,
      "tsar": 379,
      "rehab": 380,
      "trend": 381,
      "海": 382,
      "##ates": 383,
      "##阿": 384,
      "sherman": 385,
      "##曲": 386,
      "alexa": 387,
      "lyon": 388,
      "parental": 389,
      "own": 390,
      "##ff": 391,
      "stamped": 392,
      "##vs": 393,
      "218": 394,
      "##宮": 395,
      "tradition": 396,
      "gay": 397,
      "##rino": 398,
      "convened": 399,
      "normally": 400,
      "##name": 401,
      "baggage": 402,
      "##kt": 403,
      "1951": 404,
      "horn": 405,
      "##ła": 406,
      "prepare": 407,
      "enough": 408,
      "norwich": 409,
      "talent": 410,
      "daytime": 411,
      "##nds": 412,
      "represented": 413,
      "##genic": 414,
      "##ied": 415,
      "franco": 416,
      "疒": 417,
      "coffee": 418,
      "fairness": 419,
      "vitamin": 420,
      "##щ": 421,
      "ordinance": 422,
      "appearance": 423,
      "##nes": 424,
      "haven": 425,
      "crisis": 426,
      "##up": 427,
      "spans": 428,
      "labour": 429,
      "##rea": 430,
      "royce": 431,
      "ox": 432,
      "dorm": 433,
      "hoop": 434,
      "delilah": 435,
      "awaiting": 436,
      "##lous": 437,
      "##仁": 438,
      "92": 439,
      "exchanged": 440,
      "neighbours": 441,
      "eclipse": 442,
      "waves": 443,
      "rpm": 444,
      "brad": 445,
      "fae": 446,
      "hardware": 447,
      "foraging": 448,
      "##icing": 449,
      "renewed": 450,
      "##imov": 451,
      "swiss": 452,
      "##ures": 453,
      "##س": 454,
      "doug": 455,
      "initiatives": 456,
      "planes": 457,
      "र": 458,
      "pilgrims": 459,
      "direct": 460,
      "##彳": 461,
      "license": 462,
      "graves": 463,
      "rq": 464,
      "##llation": 465,
      "tanker": 466,
      "irs": 467,
      "dina": 468,
      "economies": 469,
      "##iff": 470,
      "evil": 471,
      "tripoli": 472,
      "##gt": 473,
      "egyptian": 474,
      "herself": 475,
      "oldest": 476,
      "ﬁ": 477,
      "##icon": 478,
      "coral": 479,
      "hut": 480,
      "enclosure": 481,
      "controller": 482,
      "tight": 483,
      "##tis": 484,
      "forced": 485,
      "##ix": 486,
      "reviewing": 487,
      "joey": 488,
      "fares": 489,
      "##政": 490,
      "cleared": 491,
      "make": 492,
      "recommends": 493,
      "##mal": 494,
      "##edd": 495,
      "gesellschaft": 496,
      "cruz": 497,
      "intake": 498,
      "base": 499,
      "へ": 500,
      "297": 501,
      "ecole": 502,
      "##cha": 503,
      "personality": 504,
      "reads": 505,
      "hernandez": 506,
      "spotted": 507,
      "##ف": 508,
      "formula": 509,
      "linguist": 510,
      "cynthia": 511,
      "vie": 512,
      "move": 513,
      "idaho": 514,
      "##lizer": 515,
      "riga": 516,
      "##へ": 517,
      "##ding": 518,
      "opposed": 519,
      "sleep": 520,
      "compounds": 521,
      "kyle": 522,
      "（": 523,
      "necessary": 524,
      "##away": 525,
      "##vu": 526,
      "mit": 527,
      "##trick": 528,
      "404": 529,
      "ط": 530,
      "##est": 531,
      "het": 532,
      "tory": 533,
      "##pass": 534,
      "##sei": 535,
      "done": 536,
      "university": 537,
      "reports": 538,
      "pregnant": 539,
      "##wall": 540,
      "hon": 541,
      "determination": 542,
      "concerto": 543,
      "laundry": 544,
      "clube": 545,
      "##id": 546,
      "##iger": 547,
      "married": 548,
      "chaotic": 549,
      "kindness": 550,
      "##འ": 551,
      "174": 552,
      "ड": 553,
      "saturn": 554,
      "737": 555,
      "##king": 556,
      "##grade": 557,
      "##vil": 558,
      "log": 559,
      "confidence": 560,
      "°": 561,
      "textiles": 562,
      "vila": 563,
      "sighting": 564,
      "brien": 565,
      "removing": 566,
      "##zos": 567,
      "##pod": 568,
      "org": 569,
      "##mento": 570,
      "1760": 571,
      "surreal": 572,
      "erich": 573,
      "trent": 574,
      "arrange": 575,
      "gao": 576,
      "ia": 577,
      "##j": 578,
      "ensemble": 579,
      "waste": 580,
      "24th": 581,
      "fewer": 582,
      "avant": 583,
      "reece": 584,
      "clement": 585,
      "musa": 586,
      "boulder": 587,
      "##ӏ": 588,
      "つ": 589,
      "土": 590,
      "minimize": 591,
      "forensic": 592,
      "gradual": 593,
      "##ho": 594,
      "##վ": 595,
      "scripts": 596,
      "##御": 597,
      "##cen": 598,
      "z": 599,
      "productions": 600,
      "69": 601,
      "punk": 602,
      "fake": 603,
      "molly": 604,
      "rocky": 605,
      "compose": 606,
      "excused": 607,
      "talks": 608,
      "marriage": 609,
      "fill": 610,
      "interested": 611,
      "##η": 612,
      "luigi": 613,
      "lure": 614,
      "formats": 615,
      "fredrik": 616,
      "thanked": 617,
      "sink": 618,
      "bait": 619,
      "enthusiasm": 620,
      "achieved": 621,
      "##uil": 622,
      "ahmedabad": 623,
      "„": 624,
      "failed": 625,
      "humidity": 626,
      "year": 627,
      "##生": 628,
      "ァ": 629,
      "##mata": 630,
      "snap": 631,
      "##held": 632,
      "stoke": 633,
      "fame": 634,
      "tuba": 635,
      "section": 636,
      "##cade": 637,
      "eduard": 638,
      "uncover": 639,
      "doi": 640,
      "##nx": 641,
      "monroe": 642,
      "electron": 643,
      "contains": 644,
      "specialty": 645,
      "##leaf": 646,
      "2003": 647,
      "onto": 648,
      "ace": 649,
      "##sd": 650,
      "##ven": 651,
      "##sir": 652,
      "polished": 653,
      "recreation": 654,
      "##tell": 655,
      "##rus": 656,
      "messaging": 657,
      "##ᆼ": 658,
      "economics": 659,
      "swan": 660,
      "kiss": 661,
      "##90": 662,
      "interval": 663,
      "pal": 664,
      "rap": 665,
      "mad": 666,
      "##ays": 667,
      "##sity": 668,
      "13th": 669,
      "breeze": 670,
      "attribute": 671,
      "frederic": 672,
      "germans": 673,
      "##chua": 674,
      "holidays": 675,
      "speculative": 676,
      "cuba": 677,
      "∂": 678,
      "bringing": 679,
      "##erty": 680,
      "ス": 681,
      "leonid": 682,
      "venue": 683,
      "412": 684,
      "##59": 685,
      "##千": 686,
      "prayer": 687,
      "amiga": 688,
      "cells": 689,
      "serving": 690,
      "nighttime": 691,
      "1721": 692,
      "cb": 693,
      "cade": 694,
      "##just": 695,
      "future": 696,
      "##eza": 697,
      "♥": 698,
      "processed": 699,
      "adopt": 700,
      "analysis": 701,
      "dangerous": 702,
      "##region": 703,
      "ﬂ": 704,
      "##bat": 705,
      "van": 706,
      "2013": 707,
      "##np": 708,
      "admitted": 709,
      "##with": 710,
      "robyn": 711,
      "library": 712,
      "veterinary": 713,
      "butte": 714,
      "##լ": 715,
      "城": 716,
      "displayed": 717,
      "##osi": 718,
      "francais": 719,
      "##kova": 720,
      "##ee": 721,
      "##sure": 722,
      "diaspora": 723,
      "lodging": 724,
      "we": 725,
      "wealth": 726,
      "bordeaux": 727,
      "##tani": 728,
      "か": 729,
      "##rds": 730,
      "satisfy": 731,
      "ryan": 732,
      "regularly": 733,
      "460": 734,
      "pinto": 735,
      "expects": 736,
      "coherent": 737,
      "workforce": 738,
      "##beau": 739,
      "##अ": 740,
      "functions": 741,
      "##fl": 742,
      "##版": 743,
      "overlooking": 744,
      "##zak": 745,
      "sheldon": 746,
      "themes": 747,
      "small": 748,
      "harold": 749,
      "recipients": 750,
      "adaptations": 751,
      "##ল": 752,
      "supplemental": 753,
      "##sas": 754,
      "##aina": 755,
      "##φ": 756,
      "fins": 757,
      "correspondence": 758,
      "triggering": 759,
      "pair": 760,
      "##cy": 761,
      "##corp": 762,
      "##tip": 763,
      "enhance": 764,
      "512": 765,
      "##葉": 766,
      "##combe": 767,
      "##ople": 768,
      "architect": 769,
      "##cca": 770,
      "1841": 771,
      "sizes": 772,
      "farmer": 773,
      "##rek": 774,
      "##anga": 775,
      "anger": 776,
      "##ters": 777,
      "i": 778,
      "premiere": 779,
      "encourage": 780,
      "murdoch": 781,
      "##missible": 782,
      "participants": 783,
      "##pen": 784,
      "ventures": 785,
      "researcher": 786,
      "##economic": 787,
      "ore": 788,
      "collar": 789,
      "returning": 790,
      "н": 791,
      "salim": 792,
      "switch": 793,
      "case": 794,
      "quickly": 795,
      "##ural": 796,
      "##eis": 797,
      "j": 798,
      "##izan": 799,
      "pig": 800,
      "reservations": 801,
      "##55": 802,
      "increasingly": 803,
      "organisation": 804,
      "forces": 805,
      "##bial": 806,
      "ʋ": 807,
      "##date": 808,
      "considers": 809,
      "wheat": 810,
      "##ocation": 811,
      "consideration": 812,
      "##ᅴ": 813,
      "lee": 814,
      "felicity": 815,
      "drugs": 816,
      "neck": 817,
      "lexi": 818,
      "##uso": 819,
      "heated": 820,
      "comprehensive": 821,
      "島": 822,
      "##wart": 823,
      "##irus": 824,
      "archer": 825,
      "##qvist": 826,
      "##quisite": 827,
      "46": 828,
      "jays": 829,
      "chip": 830,
      "proposal": 831,
      "fail": 832,
      "ς": 833,
      "75": 834,
      "freaked": 835,
      "england": 836,
      "cecilia": 837,
      "##г": 838,
      "##giving": 839,
      "##ab": 840,
      "scan": 841,
      "rico": 842,
      "‡": 843,
      "examining": 844,
      "transcription": 845,
      "hollow": 846,
      "7th": 847,
      "harvard": 848,
      "cobra": 849,
      "gray": 850,
      "##iae": 851,
      "ッ": 852,
      "##δ": 853,
      "cup": 854,
      "sits": 855,
      "##lum": 856,
      "crash": 857,
      "wanna": 858,
      "##lang": 859,
      "securities": 860,
      "##lite": 861,
      "telescope": 862,
      "2015": 863,
      "palace": 864,
      "会": 865,
      "##vr": 866,
      "##mir": 867,
      "alta": 868,
      "stopping": 869,
      "##chal": 870,
      "ec": 871,
      "19": 872,
      "##stov": 873,
      "།": 874,
      "minor": 875,
      "##ල": 876,
      "forget": 877,
      "875": 878,
      "denise": 879,
      "removal": 880,
      "alexandre": 881,
      "broker": 882,
      "disruption": 883,
      "compliance": 884,
      "##\"": 885,
      "##se": 886,
      "##open": 887,
      "fuel": 888,
      "##ication": 889,
      "analysts": 890,
      "causing": 891,
      "##sia": 892,
      "##lau": 893,
      "##¬": 894,
      "ars": 895,
      "char": 896,
      "##oche": 897,
      "ᵗ": 898,
      "1777": 899,
      "##ula": 900,
      "clerk": 901,
      "rowland": 902,
      "exhibition": 903,
      "ী": 904,
      "thousands": 905,
      "##git": 906,
      "bureau": 907,
      "collections": 908,
      "『": 909,
      "য": 910,
      "scoring": 911,
      "departing": 912,
      "mason": 913,
      "baptist": 914,
      "##ibar": 915,
      "connell": 916,
      "very": 917,
      "fiber": 918,
      "studies": 919,
      "caesar": 920,
      "name": 921,
      "steer": 922,
      "kickoff": 923,
      "perfectly": 924,
      "neighbor": 925,
      "gang": 926,
      "rating": 927,
      "##vel": 928,
      "##hiro": 929,
      "##chus": 930,
      "goals": 931,
      "##sca": 932,
      "tin": 933,
      "hove": 934,
      "solar": 935,
      "characters": 936,
      "obligations": 937,
      "1959": 938,
      "##eb": 939,
      "ctv": 940,
      "chavez": 941,
      "##ret": 942,
      "bn": 943,
      "nodes": 944,
      "traverse": 945,
      "competition": 946,
      "regal": 947,
      "##uis": 948,
      "1941": 949,
      "##н": 950,
      "highest": 951,
      "algae": 952,
      "larger": 953,
      "loaf": 954,
      "below": 955,
      "shed": 956,
      "##tream": 957,
      "deposits": 958,
      "smile": 959,
      "bethel": 960,
      "alain": 961,
      "##haus": 962,
      "movement": 963,
      "##bry": 964,
      "##eh": 965,
      "financing": 966,
      "clad": 967,
      "##itte": 968,
      "pitch": 969,
      "chennai": 970,
      "dozens": 971,
      "breach": 972,
      "##oned": 973,
      "₩": 974,
      "ɣ": 975,
      "##rion": 976,
      "size": 977,
      "seemed": 978,
      "##pate": 979,
      "wash": 980,
      "rolf": 981,
      "anastasia": 982,
      "##mei": 983,
      "##nea": 984,
      "leaking": 985,
      "circle": 986,
      "##⺩": 987,
      "integrated": 988,
      "##s": 989,
      "##mouth": 990,
      "dallas": 991,
      "##roy": 992,
      "calder": 993,
      "##leen": 994,
      "protector": 995,
      "col": 996,
      "ん": 997,
      "chill": 998,
      "capturing": 999,
      "gan": 1000,
      "for": 1001,
      "##ท": 1002,
      "springs": 1003,
      "quentin": 1004,
      "province": 1005,
      "hayes": 1006,
      "como": 1007,
      "gap": 1008,
      "transfers": 1009,
      "rhythmic": 1010,
      "apparently": 1011,
      "drawings": 1012,
      "jia": 1013,
      "ferrari": 1014,
      "bearing": 1015,
      "value": 1016,
      "##龸": 1017,
      "##tam": 1018,
      "maintenance": 1019,
      "ي": 1020,
      "ბ": 1021,
      "##ifies": 1022,
      "accepting": 1023,
      "त": 1024,
      "##“": 1025,
      "##redo": 1026,
      "opponents": 1027,
      "reading": 1028,
      "some": 1029,
      "copper": 1030,
      "understood": 1031,
      "viktor": 1032,
      "##ণ": 1033,
      "looking": 1034,
      "225": 1035,
      "print": 1036,
      "posed": 1037,
      "##cken": 1038,
      "pink": 1039,
      "subtly": 1040,
      "##azi": 1041,
      "fiction": 1042,
      "和": 1043,
      "nude": 1044,
      "##kal": 1045,
      "ib": 1046,
      "bucket": 1047,
      "liza": 1048,
      "secured": 1049,
      "morale": 1050,
      "motorway": 1051,
      "wits": 1052,
      "jacobs": 1053,
      "flag": 1054,
      "returns": 1055,
      "##ogenic": 1056,
      "zebra": 1057,
      "##@": 1058,
      "promised": 1059,
      "yuan": 1060,
      "##rb": 1061,
      "##ages": 1062,
      "199": 1063,
      "₉": 1064,
      "20s": 1065,
      "##oco": 1066,
      "ceremonial": 1067,
      "before": 1068,
      "sections": 1069,
      "##八": 1070,
      "##ন": 1071,
      "merchandise": 1072,
      "entity": 1073,
      "argue": 1074,
      "##aan": 1075,
      "##nah": 1076,
      "228": 1077,
      "thematic": 1078,
      "¤": 1079,
      "spring": 1080,
      "freed": 1081,
      "loyalty": 1082,
      "elsa": 1083,
      "##san": 1084,
      "ceramics": 1085,
      "263": 1086,
      "ŋ": 1087,
      "##ք": 1088,
      "rest": 1089,
      "passengers": 1090,
      "##(": 1091,
      "chamber": 1092,
      "honest": 1093,
      "##ddle": 1094,
      "##iti": 1095,
      "fein": 1096,
      "ホ": 1097,
      "bite": 1098,
      "advisor": 1099,
      "groundbreaking": 1100,
      "leland": 1101,
      "psi": 1102,
      "##ов": 1103,
      "manually": 1104,
      "##n": 1105,
      "phi": 1106,
      "##cula": 1107,
      "章": 1108,
      "##ena": 1109,
      "spiritual": 1110,
      "associate": 1111,
      "originals": 1112,
      "anna": 1113,
      "draw": 1114,
      "breath": 1115,
      "ltd": 1116,
      "##家": 1117,
      "hopeful": 1118,
      "language": 1119,
      "transparency": 1120,
      "##nov": 1121,
      "procurement": 1122,
      "nathaniel": 1123,
      "cover": 1124,
      "##dc": 1125,
      "chihuahua": 1126,
      "seller": 1127,
      "##fication": 1128,
      "description": 1129,
      "##active": 1130,
      "enrichment": 1131,
      "ق": 1132,
      "##ц": 1133,
      "kenneth": 1134,
      "navigation": 1135,
      "drives": 1136,
      "meta": 1137,
      "special": 1138,
      "algorithm": 1139,
      "##kee": 1140,
      "turk": 1141,
      "##tland": 1142,
      "compared": 1143,
      "genre": 1144,
      "evident": 1145,
      "##inal": 1146,
      "plasma": 1147,
      "randall": 1148,
      "bicycle": 1149,
      "##☆": 1150,
      "##cit": 1151,
      "##ake": 1152,
      "##writing": 1153,
      "צ": 1154,
      "shift": 1155,
      "##gins": 1156,
      "turbines": 1157,
      "christina": 1158,
      "celebrates": 1159,
      "##q": 1160,
      "##aling": 1161,
      "borrowed": 1162,
      "##ec": 1163,
      "settled": 1164,
      "talents": 1165,
      "raid": 1166,
      "liked": 1167,
      "##ᵍ": 1168,
      "capabilities": 1169,
      "seeing": 1170,
      "##sl": 1171,
      "##ducted": 1172,
      "1772": 1173,
      "was": 1174,
      "gabe": 1175,
      "russia": 1176,
      "心": 1177,
      "##ₖ": 1178,
      "flats": 1179,
      "##bana": 1180,
      "children": 1181,
      "funk": 1182,
      "celebrating": 1183,
      "recommend": 1184,
      "node": 1185,
      "##isto": 1186,
      "##ˈ": 1187,
      "slack": 1188,
      "manner": 1189,
      "sant": 1190,
      "honestly": 1191,
      "cnn": 1192,
      "ama": 1193,
      "##♯": 1194,
      "れ": 1195,
      "##pts": 1196,
      "##東": 1197,
      "ᶠ": 1198,
      "intra": 1199,
      "marty": 1200,
      "##let": 1201,
      "##bino": 1202,
      "##区": 1203,
      "36": 1204,
      "desk": 1205,
      "duty": 1206,
      "participating": 1207,
      "everybody": 1208,
      "guarantees": 1209,
      "##jevic": 1210,
      "1987": 1211,
      "lois": 1212,
      "vivid": 1213,
      "relief": 1214,
      "della": 1215,
      "montreal": 1216,
      "##kas": 1217,
      "drought": 1218,
      "134": 1219,
      "##eding": 1220,
      "motor": 1221,
      "material": 1222,
      "wireless": 1223,
      "loved": 1224,
      "##ɕ": 1225,
      "dover": 1226,
      "listener": 1227,
      "proposals": 1228,
      "luther": 1229,
      "extras": 1230,
      "hub": 1231,
      "ट": 1232,
      "##physics": 1233,
      "carry": 1234,
      "decor": 1235,
      "sharing": 1236,
      "##ring": 1237,
      "barge": 1238,
      "296": 1239,
      "facto": 1240,
      "よ": 1241,
      "bc": 1242,
      "##ᵀ": 1243,
      "christ": 1244,
      "##pani": 1245,
      "119": 1246,
      "schultz": 1247,
      "kings": 1248,
      "pointer": 1249,
      "blaming": 1250,
      "ref": 1251,
      "bouquet": 1252,
      "laval": 1253,
      "th": 1254,
      "##ize": 1255,
      "modular": 1256,
      "##maid": 1257,
      "##sos": 1258,
      "minerva": 1259,
      "loops": 1260,
      "nights": 1261,
      "josiah": 1262,
      "##orra": 1263,
      "plains": 1264,
      "charged": 1265,
      "##fted": 1266,
      "ᄇ": 1267,
      "billings": 1268,
      "maturity": 1269,
      "nutrition": 1270,
      "##rata": 1271,
      "residences": 1272,
      "muscular": 1273,
      "strategic": 1274,
      "details": 1275,
      "brest": 1276,
      "##定": 1277,
      "title": 1278,
      "##ش": 1279,
      "holding": 1280,
      "##mot": 1281,
      "usually": 1282,
      "figure": 1283,
      "steel": 1284,
      "##till": 1285,
      "canyon": 1286,
      "causeway": 1287,
      "##urs": 1288,
      "212": 1289,
      "tale": 1290,
      "##rts": 1291,
      "##diment": 1292,
      "sc": 1293,
      "ave": 1294,
      "minors": 1295,
      "##rsten": 1296,
      "paths": 1297,
      "acceleration": 1298,
      "roots": 1299,
      "##cial": 1300,
      "surfaces": 1301,
      "##xing": 1302,
      "elect": 1303,
      "c": 1304,
      "blacks": 1305,
      "spence": 1306,
      "commissioning": 1307,
      "drivers": 1308,
      "password": 1309,
      "##arm": 1310,
      "ვ": 1311,
      "##ן": 1312,
      "mei": 1313,
      "steep": 1314,
      "false": 1315,
      "retention": 1316,
      "revolving": 1317,
      "company": 1318,
      "華": 1319,
      "vibrant": 1320,
      "##mur": 1321,
      "1834": 1322,
      "mile": 1323,
      "nikola": 1324,
      "##ক": 1325,
      "guard": 1326,
      "都": 1327,
      "presidency": 1328,
      "##ucci": 1329,
      "##fies": 1330,
      "grange": 1331,
      "spanning": 1332,
      "insist": 1333,
      "massage": 1334,
      "tug": 1335,
      "1958": 1336,
      "##ional": 1337,
      "sense": 1338,
      "instantly": 1339,
      "flores": 1340,
      "rc": 1341,
      "totally": 1342,
      "concepcion": 1343,
      "appointment": 1344,
      "booking": 1345,
      "virgin": 1346,
      "1859": 1347,
      "coleman": 1348,
      "宮": 1349,
      "wrocław": 1350,
      "harmon": 1351,
      "rashid": 1352,
      "flip": 1353,
      "evenings": 1354,
      "352": 1355,
      "jumps": 1356,
      "犬": 1357,
      "maker": 1358,
      "iv": 1359,
      "##joy": 1360,
      "rats": 1361,
      "voyages": 1362,
      "##mun": 1363,
      "wonders": 1364,
      "mika": 1365,
      "descriptions": 1366,
      "preservation": 1367,
      "phrase": 1368,
      "##⽥": 1369,
      "advisory": 1370,
      "rejoin": 1371,
      "remembering": 1372,
      "dumb": 1373,
      "conner": 1374,
      "ɐ": 1375,
      "sonora": 1376,
      "swift": 1377,
      "adoption": 1378,
      "estimated": 1379,
      "easiest": 1380,
      "correct": 1381,
      "ce": 1382,
      "assessing": 1383,
      "##sp": 1384,
      "戸": 1385,
      "521": 1386,
      "protects": 1387,
      "stride": 1388,
      "juice": 1389,
      "metropolitan": 1390,
      "relaxed": 1391,
      "¥": 1392,
      "employees": 1393,
      "##rang": 1394,
      "violence": 1395,
      "##sse": 1396,
      "toss": 1397,
      "halle": 1398,
      "caden": 1399,
      "pia": 1400,
      "waldo": 1401,
      "winners": 1402,
      "1848": 1403,
      "cane": 1404,
      "iteration": 1405,
      "##uz": 1406,
      "gps": 1407,
      "##rka": 1408,
      "seasoned": 1409,
      "touch": 1410,
      "initially": 1411,
      "1604": 1412,
      "##law": 1413,
      "1560": 1414,
      "noticeable": 1415,
      "¿": 1416,
      "道": 1417,
      "paris": 1418,
      "offs": 1419,
      "##lved": 1420,
      "itself": 1421,
      "aires": 1422,
      "da": 1423,
      "##nar": 1424,
      "shy": 1425,
      "sk": 1426,
      "##card": 1427,
      "preparing": 1428,
      "ain": 1429,
      "##cable": 1430,
      "##kar": 1431,
      "149": 1432,
      "##kong": 1433,
      "stock": 1434,
      "generates": 1435,
      "##oss": 1436,
      "crucial": 1437,
      "##39": 1438,
      "giro": 1439,
      "digits": 1440,
      "patty": 1441,
      "##zine": 1442,
      "babe": 1443,
      "ham": 1444,
      "##us": 1445,
      "palette": 1446,
      "framework": 1447,
      "mae": 1448,
      "bun": 1449,
      "示": 1450,
      "sets": 1451,
      "gran": 1452,
      "##db": 1453,
      "taxes": 1454,
      "yep": 1455,
      "ض": 1456,
      "##dot": 1457,
      "thought": 1458,
      "##free": 1459,
      "formerly": 1460,
      "caste": 1461,
      "kick": 1462,
      "##rling": 1463,
      "##lock": 1464,
      "flight": 1465,
      "az": 1466,
      "248": 1467,
      "vessels": 1468,
      "##je": 1469,
      "rune": 1470,
      "shelters": 1471,
      "##tton": 1472,
      "monterrey": 1473,
      "generation": 1474,
      "del": 1475,
      "##isches": 1476,
      "##ify": 1477,
      "##wny": 1478,
      "investing": 1479,
      "##dek": 1480,
      "bessie": 1481,
      "xl": 1482,
      "050": 1483,
      "pan": 1484,
      "abbott": 1485,
      "siena": 1486,
      "styles": 1487,
      "exam": 1488,
      "reactions": 1489,
      "vent": 1490,
      "but": 1491,
      "society": 1492,
      "recalled": 1493,
      "##ky": 1494,
      "tau": 1495,
      "kin": 1496,
      "pak": 1497,
      "##ھ": 1498,
      "##uate": 1499,
      "き": 1500,
      "##gami": 1501,
      "cicero": 1502,
      "##uet": 1503,
      "##ched": 1504,
      "##borne": 1505,
      "prison": 1506,
      "societe": 1507,
      "##bury": 1508,
      "##ina": 1509,
      "##tation": 1510,
      "registers": 1511,
      "gratitude": 1512,
      "equal": 1513,
      "derek": 1514,
      "cheaper": 1515,
      "participation": 1516,
      "almost": 1517,
      "domestic": 1518,
      "1665": 1519,
      "##ply": 1520,
      "uv": 1521,
      "happening": 1522,
      "contributor": 1523,
      "live": 1524,
      "disco": 1525,
      "sargent": 1526,
      "tow": 1527,
      "indicated": 1528,
      "⁷": 1529,
      "universidad": 1530,
      "114": 1531,
      "##sters": 1532,
      "##recht": 1533,
      "domes": 1534,
      "bills": 1535,
      "valued": 1536,
      "printing": 1537,
      "cumulative": 1538,
      "##ych": 1539,
      "uppsala": 1540,
      "dealing": 1541,
      "samuel": 1542,
      "components": 1543,
      "tehsil": 1544,
      "力": 1545,
      "##ey": 1546,
      "capital": 1547,
      "radar": 1548,
      "limo": 1549,
      "##bid": 1550,
      "kuala": 1551,
      "gerald": 1552,
      "##aha": 1553,
      "things": 1554,
      "53": 1555,
      "20th": 1556,
      "eve": 1557,
      "estimates": 1558,
      "shareholder": 1559,
      "adult": 1560,
      "##ʐ": 1561,
      "##ppe": 1562,
      "hydra": 1563,
      "##cke": 1564,
      "せ": 1565,
      "ryu": 1566,
      "dice": 1567,
      "parking": 1568,
      "##ibility": 1569,
      "##ram": 1570,
      "##ryn": 1571,
      "##tal": 1572,
      "##fall": 1573,
      "vis": 1574,
      "civic": 1575,
      "##los": 1576,
      "canopy": 1577,
      "##week": 1578,
      "xu": 1579,
      "##was": 1580,
      "african": 1581,
      "##ttal": 1582,
      "recommended": 1583,
      "violation": 1584,
      "##onic": 1585,
      "maxi": 1586,
      "refuge": 1587,
      "torre": 1588,
      "flagship": 1589,
      "races": 1590,
      "heinrich": 1591,
      "173": 1592,
      "1653": 1593,
      "##rke": 1594,
      "##hair": 1595,
      "##rman": 1596,
      "##acker": 1597,
      "pace": 1598,
      "replacement": 1599,
      "incentive": 1600,
      "decision": 1601,
      "publication": 1602,
      "combine": 1603,
      "##stellar": 1604,
      "##gnan": 1605,
      "##mous": 1606,
      "pakistani": 1607,
      "##lid": 1608,
      "##meister": 1609,
      "both": 1610,
      "##27": 1611,
      "experienced": 1612,
      "##bain": 1613,
      "treated": 1614,
      "grace": 1615,
      "##rwood": 1616,
      "##arus": 1617,
      "property": 1618,
      "doris": 1619,
      "द": 1620,
      "pep": 1621,
      "##ately": 1622,
      "##sley": 1623,
      "clothes": 1624,
      "曲": 1625,
      "##ka": 1626,
      "speech": 1627,
      "falling": 1628,
      "dynamics": 1629,
      "##llo": 1630,
      "lord": 1631,
      "guidelines": 1632,
      "phone": 1633,
      "hiram": 1634,
      "：": 1635,
      "alfonso": 1636,
      "helen": 1637,
      "1655": 1638,
      "puzzle": 1639,
      "slogan": 1640,
      "##ida": 1641,
      "abigail": 1642,
      "modules": 1643,
      "structured": 1644,
      "##ᅦ": 1645,
      "twitter": 1646,
      "containing": 1647,
      "martina": 1648,
      "measuring": 1649,
      "pits": 1650,
      "faculty": 1651,
      "bragg": 1652,
      "mark": 1653,
      "vicki": 1654,
      "suv": 1655,
      "leasing": 1656,
      "paints": 1657,
      "ξ": 1658,
      "##ˢ": 1659,
      "paulo": 1660,
      "war": 1661,
      "##pad": 1662,
      "craftsman": 1663,
      "##row": 1664,
      "sound": 1665,
      "##ghan": 1666,
      "montane": 1667,
      "elm": 1668,
      "##landa": 1669,
      "rappers": 1670,
      "concert": 1671,
      "mi": 1672,
      "dustin": 1673,
      "##sell": 1674,
      "xvi": 1675,
      "##an": 1676,
      "bastion": 1677,
      "ᵖ": 1678,
      "##ms": 1679,
      "rao": 1680,
      "curtis": 1681,
      "headquartered": 1682,
      "յ": 1683,
      "musee": 1684,
      "##止": 1685,
      "tucked": 1686,
      "##wg": 1687,
      "dent": 1688,
      "49": 1689,
      "##class": 1690,
      "these": 1691,
      "stress": 1692,
      "businesses": 1693,
      "sheng": 1694,
      "schmidt": 1695,
      "mar": 1696,
      "tough": 1697,
      "##ᄑ": 1698,
      "integration": 1699,
      "liege": 1700,
      "☉": 1701,
      "blocking": 1702,
      "grande": 1703,
      "republican": 1704,
      "##ino": 1705,
      "source": 1706,
      "antonio": 1707,
      "bulletin": 1708,
      "loss": 1709,
      "acid": 1710,
      "demanding": 1711,
      "##ー": 1712,
      "hedge": 1713,
      "alike": 1714,
      "psychology": 1715,
      "administration": 1716,
      "diplomatic": 1717,
      "##vite": 1718,
      "##avian": 1719,
      "four": 1720,
      "stretch": 1721,
      "chew": 1722,
      "transit": 1723,
      "principal": 1724,
      "migrant": 1725,
      "preferences": 1726,
      "directors": 1727,
      "1791": 1728,
      "macy": 1729,
      "winston": 1730,
      "actors": 1731,
      "china": 1732,
      "##minate": 1733,
      "##akes": 1734,
      "##ψ": 1735,
      "ass": 1736,
      "##ential": 1737,
      "##rut": 1738,
      "##unas": 1739,
      "fire": 1740,
      "##ssa": 1741,
      "tone": 1742,
      "explain": 1743,
      "scheme": 1744,
      "##ter": 1745,
      "bb": 1746,
      "##llin": 1747,
      "amber": 1748,
      "blended": 1749,
      "##lson": 1750,
      "வ": 1751,
      "##mark": 1752,
      "33": 1753,
      "1716": 1754,
      "enhancement": 1755,
      "painted": 1756,
      "frey": 1757,
      "##giri": 1758,
      "##nig": 1759,
      "effectiveness": 1760,
      "1570": 1761,
      "stove": 1762,
      "gulp": 1763,
      "pisa": 1764,
      "renew": 1765,
      "wouldn": 1766,
      "exactly": 1767,
      "universe": 1768,
      "shanghai": 1769,
      "johnston": 1770,
      "impulse": 1771,
      "joanna": 1772,
      "##chuk": 1773,
      "oz": 1774,
      "shoreline": 1775,
      "##氵": 1776,
      "remington": 1777,
      "##ddin": 1778,
      "##林": 1779,
      "lists": 1780,
      "dixie": 1781,
      "continually": 1782,
      "deutschland": 1783,
      "waterfall": 1784,
      "daphne": 1785,
      "parc": 1786,
      "escape": 1787,
      "arriving": 1788,
      "lori": 1789,
      "lex": 1790,
      "technology": 1791,
      "fleming": 1792,
      "makeup": 1793,
      "hacked": 1794,
      "firing": 1795,
      "wars": 1796,
      "android": 1797,
      "possibly": 1798,
      "##gnon": 1799,
      "linked": 1800,
      "##tes": 1801,
      "##bus": 1802,
      "elders": 1803,
      "yielded": 1804,
      "gone": 1805,
      "91": 1806,
      "exhibited": 1807,
      "##car": 1808,
      "##lai": 1809,
      "##ur": 1810,
      "lingering": 1811,
      "boots": 1812,
      "conceptual": 1813,
      "##bright": 1814,
      "emerson": 1815,
      "د": 1816,
      "badge": 1817,
      "briefing": 1818,
      "edo": 1819,
      "amc": 1820,
      "##river": 1821,
      "ת": 1822,
      "##rove": 1823,
      "dun": 1824,
      "##og": 1825,
      "##־": 1826,
      "1883": 1827,
      "##uses": 1828,
      "##lini": 1829,
      "##fide": 1830,
      "angel": 1831,
      "militants": 1832,
      "reuben": 1833,
      "##word": 1834,
      "hospitality": 1835,
      "strand": 1836,
      "##シ": 1837,
      "baja": 1838,
      "dell": 1839,
      "##hma": 1840,
      "1638": 1841,
      "##ʻ": 1842,
      "duff": 1843,
      "stem": 1844,
      "∞": 1845,
      "efforts": 1846,
      "lissa": 1847,
      "##sies": 1848,
      "##lder": 1849,
      "ن": 1850,
      "conservative": 1851,
      "jenkins": 1852,
      "##fine": 1853,
      "bat": 1854,
      "ₖ": 1855,
      "conditions": 1856,
      "prevents": 1857,
      "allah": 1858,
      "excellence": 1859,
      "masks": 1860,
      "430": 1861,
      "luciano": 1862,
      "however": 1863,
      "●": 1864,
      "##ety": 1865,
      "##ories": 1866,
      "west": 1867,
      "emmanuel": 1868,
      "##hil": 1869,
      "honey": 1870,
      "invited": 1871,
      "television": 1872,
      "tyre": 1873,
      "militias": 1874,
      "aba": 1875,
      "walden": 1876,
      "administrators": 1877,
      "iraq": 1878,
      "hank": 1879,
      "1893": 1880,
      "considerable": 1881,
      "resistance": 1882,
      "##cic": 1883,
      "##hin": 1884,
      "cyril": 1885,
      "civilian": 1886,
      "partition": 1887,
      "closure": 1888,
      "teenager": 1889,
      "##offs": 1890,
      "wilderness": 1891,
      "neighborhoods": 1892,
      "promising": 1893,
      "linguistic": 1894,
      "1661": 1895,
      "##lese": 1896,
      "ル": 1897,
      "tune": 1898,
      "ł": 1899,
      "jasmine": 1900,
      "##★": 1901,
      "patrol": 1902,
      "unclear": 1903,
      "##raus": 1904,
      "chant": 1905,
      "##ggy": 1906,
      "expose": 1907,
      "##tl": 1908,
      "1624": 1909,
      "##♠": 1910,
      "1887": 1911,
      "##iana": 1912,
      "darius": 1913,
      "##tian": 1914,
      "put": 1915,
      "tangled": 1916,
      "enthusiastic": 1917,
      "##王": 1918,
      "keith": 1919,
      "isolated": 1920,
      "##kr": 1921,
      "puts": 1922,
      "##bner": 1923,
      "coefficient": 1924,
      "##uven": 1925,
      "bella": 1926,
      "moment": 1927,
      "jews": 1928,
      "##会": 1929,
      "##چ": 1930,
      "1801": 1931,
      "divided": 1932,
      "pea": 1933,
      "fernando": 1934,
      "coordinated": 1935,
      "guillaume": 1936,
      "##sson": 1937,
      "dj": 1938,
      "##ム": 1939,
      "er": 1940,
      "##dice": 1941,
      "rudolph": 1942,
      "##zzi": 1943,
      "##ience": 1944,
      "風": 1945,
      "entrance": 1946,
      "##ogo": 1947,
      "##ban": 1948,
      "aft": 1949,
      "enterprise": 1950,
      "grayson": 1951,
      "sons": 1952,
      "mantra": 1953,
      "ljubljana": 1954,
      "ceiling": 1955,
      "addressed": 1956,
      "##lly": 1957,
      "##hd": 1958,
      "lara": 1959,
      "savanna": 1960,
      "beautiful": 1961,
      "hop": 1962,
      "##llen": 1963,
      "ա": 1964,
      "country": 1965,
      "collaborative": 1966,
      "newest": 1967,
      "boat": 1968,
      "closest": 1969,
      "investors": 1970,
      "hilt": 1971,
      "##rks": 1972,
      "cobb": 1973,
      "##lie": 1974,
      "residing": 1975,
      "spanish": 1976,
      "last": 1977,
      "jedi": 1978,
      "seventy": 1979,
      "audience": 1980,
      "##rol": 1981,
      "273": 1982,
      "112": 1983,
      "##nal": 1984,
      "johannes": 1985,
      "##otti": 1986,
      "typical": 1987,
      "duration": 1988,
      "##sh": 1989,
      "scientist": 1990,
      "instructions": 1991,
      "recession": 1992,
      "region": 1993,
      "detailed": 1994,
      "lining": 1995,
      "##lab": 1996,
      "##李": 1997,
      "all": 1998,
      "acquired": 1999,
      "tame": 2000,
      "##shin": 2001,
      "enforcement": 2002,
      "1802": 2003,
      "separated": 2004,
      "##oma": 2005,
      "##mour": 2006,
      "right": 2007,
      "##fat": 2008,
      "scope": 2009,
      "lynch": 2010,
      "hunt": 2011,
      "##●": 2012,
      "tower": 2013,
      "niccolo": 2014,
      "##xt": 2015,
      "shark": 2016,
      "gathering": 2017,
      "mars": 2018,
      "farmhouse": 2019,
      "##gles": 2020,
      "ク": 2021,
      "exploration": 2022,
      "user": 2023,
      "correctly": 2024,
      "primate": 2025,
      "104": 2026,
      "jobs": 2027,
      "resonance": 2028,
      "lecture": 2029,
      "finale": 2030,
      "rye": 2031,
      "owner": 2032,
      "##ξ": 2033,
      "##tions": 2034,
      "##inen": 2035,
      "copies": 2036,
      "##eley": 2037,
      "roughly": 2038,
      "negative": 2039,
      "nuclear": 2040,
      "victims": 2041,
      "vienna": 2042,
      "uphold": 2043,
      "cale": 2044,
      "##ggs": 2045,
      "beatrice": 2046,
      "felicia": 2047,
      "ভ": 2048,
      "closes": 2049,
      "internationally": 2050,
      "vaccine": 2051,
      "##dh": 2052,
      "##taka": 2053,
      "##თ": 2054,
      "few": 2055,
      "makes": 2056,
      "sale": 2057,
      "diet": 2058,
      "orthodox": 2059,
      "schools": 2060,
      "generic": 2061,
      "##э": 2062,
      "carlo": 2063,
      "bloom": 2064,
      "##ய": 2065,
      "##mel": 2066,
      "fight": 2067,
      "carrot": 2068,
      "kun": 2069,
      "inca": 2070,
      "city": 2071,
      "specimen": 2072,
      "##enbach": 2073,
      "visitors": 2074,
      "陽": 2075,
      "restoring": 2076,
      "rf": 2077,
      "bodies": 2078,
      "completed": 2079,
      "ア": 2080,
      "intersection": 2081,
      "silence": 2082,
      "halls": 2083,
      "##rrier": 2084,
      "developing": 2085,
      "##pose": 2086,
      "pain": 2087,
      "tub": 2088,
      "micah": 2089,
      "##bm": 2090,
      "昭": 2091,
      "municipality": 2092,
      "ambassador": 2093,
      "strike": 2094,
      "smoothly": 2095,
      "##neck": 2096,
      "carole": 2097,
      "625": 2098,
      "##hon": 2099,
      "bond": 2100,
      "1630": 2101,
      "##mos": 2102,
      "hint": 2103,
      "terms": 2104,
      "motif": 2105,
      "developments": 2106,
      "rosie": 2107,
      "##meral": 2108,
      "forest": 2109,
      "##ir": 2110,
      "karl": 2111,
      "##ander": 2112,
      "project": 2113,
      "##ore": 2114,
      "gather": 2115,
      "n": 2116,
      "##hu": 2117,
      "う": 2118,
      "ر": 2119,
      "featuring": 2120,
      "lt": 2121,
      "tommy": 2122,
      "ga": 2123,
      "1805": 2124,
      "authorization": 2125,
      "helsinki": 2126,
      "douglas": 2127,
      "treat": 2128,
      "mentor": 2129,
      "##rist": 2130,
      "travers": 2131,
      "rebecca": 2132,
      "commanders": 2133,
      "silent": 2134,
      "仮": 2135,
      "sec": 2136,
      "oleg": 2137,
      "chun": 2138,
      "ro": 2139,
      "button": 2140,
      "happiness": 2141,
      "slot": 2142,
      "##0s": 2143,
      "cartwright": 2144,
      "জ": 2145,
      "schemes": 2146,
      "##kind": 2147,
      "fitness": 2148,
      "##女": 2149,
      "##51": 2150,
      "##ton": 2151,
      "vice": 2152,
      "organs": 2153,
      "after": 2154,
      "##ain": 2155,
      "##お": 2156,
      "nevada": 2157,
      "##ales": 2158,
      "someone": 2159,
      "₈": 2160,
      "pei": 2161,
      "adaptive": 2162,
      "induced": 2163,
      "toy": 2164,
      "norton": 2165,
      "##mere": 2166,
      "ecosystem": 2167,
      "##ions": 2168,
      "fathers": 2169,
      "gunner": 2170,
      "suitable": 2171,
      "##code": 2172,
      "alliance": 2173,
      "##ffy": 2174,
      "fifth": 2175,
      "emily": 2176,
      "brass": 2177,
      "predicted": 2178,
      "decorative": 2179,
      "blanche": 2180,
      "atp": 2181,
      "##ault": 2182,
      "legitimate": 2183,
      "korean": 2184,
      "##making": 2185,
      "cards": 2186,
      "removed": 2187,
      "duties": 2188,
      "homer": 2189,
      "sl": 2190,
      "##yas": 2191,
      "o": 2192,
      "parenting": 2193,
      "jurgen": 2194,
      "doe": 2195,
      "æ": 2196,
      "gained": 2197,
      "1762": 2198,
      "2020": 2199,
      "##bet": 2200,
      "光": 2201,
      "##wo": 2202,
      "tis": 2203,
      "ric": 2204,
      "inheritance": 2205,
      "##eland": 2206,
      "154": 2207,
      "cache": 2208,
      "time": 2209,
      "stafford": 2210,
      "mx": 2211,
      "ɪ": 2212,
      "authority": 2213,
      "forming": 2214,
      "magic": 2215,
      "ھ": 2216,
      "##itation": 2217,
      "martha": 2218,
      "clinic": 2219,
      "towns": 2220,
      "rim": 2221,
      "plantation": 2222,
      "chances": 2223,
      "kingdom": 2224,
      "collect": 2225,
      "tying": 2226,
      "##ism": 2227,
      "overseas": 2228,
      "brace": 2229,
      "grimes": 2230,
      "##fers": 2231,
      "super": 2232,
      "moi": 2233,
      "stars": 2234,
      "wes": 2235,
      "177": 2236,
      "signing": 2237,
      "managers": 2238,
      "benz": 2239,
      "##ध": 2240,
      "networking": 2241,
      "colby": 2242,
      "understand": 2243,
      "～": 2244,
      "thumb": 2245,
      "pose": 2246,
      "remove": 2247,
      "interesting": 2248,
      "cong": 2249,
      "submitted": 2250,
      "hotel": 2251,
      "responses": 2252,
      "##sal": 2253,
      "message": 2254,
      "##church": 2255,
      "rack": 2256,
      "schneider": 2257,
      "medium": 2258,
      "##tern": 2259,
      "statutory": 2260,
      "1981": 2261,
      "orbit": 2262,
      "##lund": 2263,
      "cultures": 2264,
      "民": 2265,
      "rings": 2266,
      "forgotten": 2267,
      "jarrett": 2268,
      "##wad": 2269,
      "constructive": 2270,
      "##onia": 2271,
      "respondents": 2272,
      "ul": 2273,
      "78": 2274,
      "fort": 2275,
      "panda": 2276,
      "##rave": 2277,
      "157": 2278,
      "##tures": 2279,
      "##tum": 2280,
      "conversation": 2281,
      "##eurs": 2282,
      "sherry": 2283,
      "ecumenical": 2284,
      "enrique": 2285,
      "chico": 2286,
      "lively": 2287,
      "##ains": 2288,
      "##ai": 2289,
      "##aria": 2290,
      "##lal": 2291,
      "##+": 2292,
      "##合": 2293,
      "ping": 2294,
      "full": 2295,
      "##lash": 2296,
      "##tr": 2297,
      "appreciation": 2298,
      "beatty": 2299,
      "programme": 2300,
      "coding": 2301,
      "speaking": 2302,
      "hammer": 2303,
      "lds": 2304,
      "##k": 2305,
      "package": 2306,
      "##ⁿ": 2307,
      "derby": 2308,
      "crowley": 2309,
      "##zu": 2310,
      "trusted": 2311,
      "whom": 2312,
      "sour": 2313,
      "gatherings": 2314,
      "soil": 2315,
      "bridge": 2316,
      "reserved": 2317,
      "downtown": 2318,
      "zee": 2319,
      "802": 2320,
      "positioning": 2321,
      "ensured": 2322,
      "lars": 2323,
      "gaps": 2324,
      "syn": 2325,
      "dona": 2326,
      "##zuki": 2327,
      "mario": 2328,
      "比": 2329,
      "ether": 2330,
      "communication": 2331,
      "##ᄎ": 2332,
      "##tus": 2333,
      "##zh": 2334,
      "##gre": 2335,
      "##ove": 2336,
      "##mm": 2337,
      "imperial": 2338,
      "restrictions": 2339,
      "myth": 2340,
      "79": 2341,
      "shorter": 2342,
      "judith": 2343,
      "plato": 2344,
      "slap": 2345,
      "aragon": 2346,
      "lilly": 2347,
      "##tan": 2348,
      "##ulator": 2349,
      "##⊗": 2350,
      "##し": 2351,
      "##cars": 2352,
      "མ": 2353,
      "##ᵇ": 2354,
      "##link": 2355,
      "deals": 2356,
      "##ence": 2357,
      "##vana": 2358,
      "strip": 2359,
      "##ya": 2360,
      "consulted": 2361,
      "between": 2362,
      "useful": 2363,
      "##將": 2364,
      "skye": 2365,
      "commander": 2366,
      "ی": 2367,
      "tina": 2368,
      "collector": 2369,
      "158": 2370,
      "single": 2371,
      "panel": 2372,
      "kota": 2373,
      "circular": 2374,
      "diamond": 2375,
      "neal": 2376,
      "moon": 2377,
      "fuss": 2378,
      "inlet": 2379,
      "##dge": 2380,
      "##sic": 2381,
      "glucose": 2382,
      "slides": 2383,
      "view": 2384,
      "position": 2385,
      "sponsorship": 2386,
      "ව": 2387,
      "##vic": 2388,
      "##land": 2389,
      "dramatically": 2390,
      "000": 2391,
      "serves": 2392,
      "crashed": 2393,
      "##ches": 2394,
      "significantly": 2395,
      "##ovich": 2396,
      "border": 2397,
      "1992": 2398,
      "lund": 2399,
      "##tein": 2400,
      "ר": 2401,
      "remy": 2402,
      "haji": 2403,
      "flu": 2404,
      "anyway": 2405,
      "##lez": 2406,
      "##placed": 2407,
      "##dy": 2408,
      "##ан": 2409,
      "##folia": 2410,
      "##version": 2411,
      "workout": 2412,
      "initials": 2413,
      "restored": 2414,
      "options": 2415,
      "##gara": 2416,
      "##）": 2417,
      "countless": 2418,
      "ling": 2419,
      "beaver": 2420,
      "##ume": 2421,
      "din": 2422,
      "champ": 2423,
      "if": 2424,
      "elle": 2425,
      "ley": 2426,
      "ranges": 2427,
      "##md": 2428,
      "##kes": 2429,
      "##藤": 2430,
      "paper": 2431,
      "sis": 2432,
      "somehow": 2433,
      "107": 2434,
      "minus": 2435,
      "##ℓ": 2436,
      "affiliation": 2437,
      "jace": 2438,
      "adrian": 2439,
      "occur": 2440,
      "arte": 2441,
      "##ger": 2442,
      "##flower": 2443,
      "look": 2444,
      "tree": 2445,
      "¬": 2446,
      "hundreds": 2447,
      "##ikh": 2448,
      "1860": 2449,
      "precedent": 2450,
      "##tt": 2451,
      "fears": 2452,
      "cindy": 2453,
      "reduction": 2454,
      "libyan": 2455,
      "taking": 2456,
      "##kla": 2457,
      "twins": 2458,
      "grocery": 2459,
      "##sha": 2460,
      "alaska": 2461,
      "recording": 2462,
      "##eli": 2463,
      "##ク": 2464,
      "##馬": 2465,
      "##tra": 2466,
      "composition": 2467,
      "residual": 2468,
      "jurist": 2469,
      "##ias": 2470,
      "ι": 2471,
      "how": 2472,
      "dominic": 2473,
      "##rish": 2474,
      "##kken": 2475,
      "cross": 2476,
      "rehabilitation": 2477,
      "cook": 2478,
      "##帝": 2479,
      "broadcast": 2480,
      "দ": 2481,
      "##ᄏ": 2482,
      "accidental": 2483,
      "ellis": 2484,
      "nas": 2485,
      "merritt": 2486,
      "grade": 2487,
      "switching": 2488,
      "##gn": 2489,
      "bounce": 2490,
      "秋": 2491,
      "encounter": 2492,
      "##tina": 2493,
      "##arina": 2494,
      "##eses": 2495,
      "exhibit": 2496,
      "hell": 2497,
      "1819": 2498,
      "##gra": 2499,
      "ankle": 2500,
      "really": 2501,
      "transgender": 2502,
      "##anger": 2503,
      "##press": 2504,
      "trail": 2505,
      "penthouse": 2506,
      "perspectives": 2507,
      "tentative": 2508,
      "##41": 2509,
      "standard": 2510,
      "task": 2511,
      "marines": 2512,
      "“": 2513,
      "moses": 2514,
      "arroyo": 2515,
      "jena": 2516,
      "electric": 2517,
      "##ieg": 2518,
      "ק": 2519,
      "rutherford": 2520,
      "richardson": 2521,
      "holm": 2522,
      "##sul": 2523,
      "82": 2524,
      "##ko": 2525,
      "ণ": 2526,
      "ernie": 2527,
      "##₃": 2528,
      "##rath": 2529,
      "babu": 2530,
      "as": 2531,
      "asteroid": 2532,
      "##村": 2533,
      "rafael": 2534,
      "absolute": 2535,
      "aj": 2536,
      "profession": 2537,
      "examiner": 2538,
      "md": 2539,
      "##lic": 2540,
      "amir": 2541,
      "##hat": 2542,
      "##vocation": 2543,
      "kilometer": 2544,
      "##vc": 2545,
      "applied": 2546,
      "expert": 2547,
      "readiness": 2548,
      "counseling": 2549,
      "and": 2550,
      "##ʂ": 2551,
      "bailey": 2552,
      "vol": 2553,
      "pietro": 2554,
      "automotive": 2555,
      "timeline": 2556,
      "believe": 2557,
      "giovanni": 2558,
      "স": 2559,
      "disputes": 2560,
      "395": 2561,
      "さ": 2562,
      "map": 2563,
      "commencing": 2564,
      "slated": 2565,
      "##kari": 2566,
      "double": 2567,
      "premium": 2568,
      "##urse": 2569,
      "##rl": 2570,
      "circuits": 2571,
      "brow": 2572,
      "##made": 2573,
      "vermont": 2574,
      "ivanov": 2575,
      "bahn": 2576,
      "ち": 2577,
      "legendary": 2578,
      "passion": 2579,
      "pond": 2580,
      "disagree": 2581,
      "folder": 2582,
      "ε": 2583,
      "##ub": 2584,
      "##lb": 2585,
      "sabine": 2586,
      "relate": 2587,
      "pupil": 2588,
      "need": 2589,
      "cain": 2590,
      "##ental": 2591,
      "benito": 2592,
      "##ship": 2593,
      "groom": 2594,
      "adjacent": 2595,
      "bbc": 2596,
      "czech": 2597,
      "##of": 2598,
      "garde": 2599,
      "##elin": 2600,
      "guide": 2601,
      "canine": 2602,
      "poet": 2603,
      "ginger": 2604,
      "##nge": 2605,
      "radiation": 2606,
      "##ound": 2607,
      "gothic": 2608,
      "devin": 2609,
      "##vin": 2610,
      "scrap": 2611,
      "inherent": 2612,
      "selections": 2613,
      "sequence": 2614,
      "carolyn": 2615,
      "inviting": 2616,
      "exhaust": 2617,
      "oklahoma": 2618,
      "dedication": 2619,
      "stored": 2620,
      "rainbow": 2621,
      "tribunal": 2622,
      "lace": 2623,
      "##lk": 2624,
      "##tos": 2625,
      "dot": 2626,
      "boyer": 2627,
      "contractual": 2628,
      "##ゆ": 2629,
      "lil": 2630,
      "under": 2631,
      "shawn": 2632,
      "590": 2633,
      "pack": 2634,
      "zodiac": 2635,
      "##ler": 2636,
      "##ner": 2637,
      "1667": 2638,
      "ni": 2639,
      "nw": 2640,
      "fabian": 2641,
      "contacts": 2642,
      "pets": 2643,
      "daily": 2644,
      "italian": 2645,
      "ut": 2646,
      "##force": 2647,
      "##ม": 2648,
      "fungi": 2649,
      "stroll": 2650,
      "charity": 2651,
      "##urian": 2652,
      "leisure": 2653,
      "弘": 2654,
      "##ᆨ": 2655,
      "eric": 2656,
      "projected": 2657,
      "##yman": 2658,
      "##raj": 2659,
      "static": 2660,
      "awesome": 2661,
      "simeon": 2662,
      "##pta": 2663,
      "##॥": 2664,
      "employed": 2665,
      "区": 2666,
      "united": 2667,
      "nfc": 2668,
      "1784": 2669,
      "##bek": 2670,
      "‘": 2671,
      "1793": 2672,
      "quantum": 2673,
      "##cate": 2674,
      "specialists": 2675,
      "##than": 2676,
      "##rma": 2677,
      "##kell": 2678,
      "##ย": 2679,
      "olivier": 2680,
      "##sw": 2681,
      "museum": 2682,
      "binary": 2683,
      "discipline": 2684,
      "##therapy": 2685,
      "nico": 2686,
      "north": 2687,
      "bart": 2688,
      "horizontal": 2689,
      "##ˡ": 2690,
      "periods": 2691,
      "##ands": 2692,
      "##erence": 2693,
      "250": 2694,
      "##oda": 2695,
      "`": 2696,
      "secure": 2697,
      "heads": 2698,
      "##松": 2699,
      "worm": 2700,
      "wrote": 2701,
      "##カ": 2702,
      "##reen": 2703,
      "ப": 2704,
      "misunderstanding": 2705,
      "##iest": 2706,
      "angle": 2707,
      "##島": 2708,
      "##bis": 2709,
      "judd": 2710,
      "？": 2711,
      "kentucky": 2712,
      "dam": 2713,
      "takes": 2714,
      "##ch": 2715,
      "##nie": 2716,
      "##iz": 2717,
      "##4": 2718,
      "merely": 2719,
      "davidson": 2720,
      "##inator": 2721,
      "##fia": 2722,
      "##lke": 2723,
      "##⇄": 2724,
      "ji": 2725,
      "ক": 2726,
      "cassie": 2727,
      "1400": 2728,
      "concern": 2729,
      "newsletter": 2730,
      "membership": 2731,
      "beach": 2732,
      "facilitated": 2733,
      "tries": 2734,
      "1875": 2735,
      "##dent": 2736,
      "shan": 2737,
      "##bots": 2738,
      "317": 2739,
      "invasive": 2740,
      "十": 2741,
      "##ogy": 2742,
      "jaya": 2743,
      "precisely": 2744,
      "ろ": 2745,
      "##wave": 2746,
      "rodrigo": 2747,
      "candidates": 2748,
      "grab": 2749,
      "they": 2750,
      "demographics": 2751,
      "2a": 2752,
      "puck": 2753,
      "1550": 2754,
      "##uity": 2755,
      "196": 2756,
      "busy": 2757,
      "partly": 2758,
      "silver": 2759,
      "overlook": 2760,
      "bernardino": 2761,
      "##oder": 2762,
      "##ario": 2763,
      "##[": 2764,
      "corporations": 2765,
      "⅓": 2766,
      "tx": 2767,
      "##bbs": 2768,
      "##trum": 2769,
      "spent": 2770,
      "flashlight": 2771,
      "dickson": 2772,
      "magnolia": 2773,
      "8": 2774,
      "pere": 2775,
      "crowd": 2776,
      "##be": 2777,
      "breast": 2778,
      "ann": 2779,
      "1852": 2780,
      "distributions": 2781,
      "##有": 2782,
      "rowe": 2783,
      "dem": 2784,
      "shots": 2785,
      "##ym": 2786,
      "politics": 2787,
      "harbour": 2788,
      "rash": 2789,
      "mac": 2790,
      "winner": 2791,
      "##uan": 2792,
      "clap": 2793,
      "customers": 2794,
      "yes": 2795,
      "ה": 2796,
      "array": 2797,
      "regional": 2798,
      "##რ": 2799,
      "squad": 2800,
      "lancaster": 2801,
      "gall": 2802,
      "##chester": 2803,
      "administrative": 2804,
      "hole": 2805,
      "basement": 2806,
      "thorn": 2807,
      "nmi": 2808,
      "abel": 2809,
      "##dis": 2810,
      "largely": 2811,
      "salsa": 2812,
      "##borg": 2813,
      "australia": 2814,
      "##hire": 2815,
      "##。": 2816,
      "ts": 2817,
      "##kor": 2818,
      "##ivate": 2819,
      "champs": 2820,
      "charter": 2821,
      "1908": 2822,
      "int": 2823,
      "immune": 2824,
      "inflation": 2825,
      "##oit": 2826,
      "##ᄋ": 2827,
      "社": 2828,
      "##bone": 2829,
      "glow": 2830,
      "voting": 2831,
      "##iza": 2832,
      "1960": 2833,
      "##rner": 2834,
      "##hli": 2835,
      "×": 2836,
      "##hos": 2837,
      "grip": 2838,
      "coordinator": 2839,
      "problem": 2840,
      "lp": 2841,
      "gt": 2842,
      "前": 2843,
      "##忠": 2844,
      "local": 2845,
      "nebula": 2846,
      "lad": 2847,
      "choice": 2848,
      "technicians": 2849,
      "located": 2850,
      "emphasizing": 2851,
      "##urn": 2852,
      "wadi": 2853,
      "qur": 2854,
      "kwan": 2855,
      "mouth": 2856,
      "eager": 2857,
      "也": 2858,
      "sebastian": 2859,
      "procedural": 2860,
      "blogger": 2861,
      "lash": 2862,
      "crimes": 2863,
      "1641": 2864,
      "##天": 2865,
      "construction": 2866,
      "##р": 2867,
      "assembly": 2868,
      "##25": 2869,
      "##tri": 2870,
      "є": 2871,
      "##iver": 2872,
      "ᄉ": 2873,
      "parameter": 2874,
      "shoot": 2875,
      "hosted": 2876,
      "brutal": 2877,
      "##dalen": 2878,
      "ₚ": 2879,
      "##pd": 2880,
      "reason": 2881,
      "portfolio": 2882,
      "arising": 2883,
      "villa": 2884,
      "atrium": 2885,
      "長": 2886,
      "compliant": 2887,
      "¡": 2888,
      "nightly": 2889,
      "records": 2890,
      "ring": 2891,
      "1670": 2892,
      "##pr": 2893,
      "raleigh": 2894,
      "machine": 2895,
      "restraining": 2896,
      "163": 2897,
      "noon": 2898,
      "##ort": 2899,
      "shoe": 2900,
      "##tub": 2901,
      "forms": 2902,
      "help": 2903,
      "enchanted": 2904,
      "garden": 2905,
      "##zek": 2906,
      "clary": 2907,
      "archive": 2908,
      "attacked": 2909,
      "riverside": 2910,
      "fountain": 2911,
      "hum": 2912,
      "hartman": 2913,
      "differential": 2914,
      "mla": 2915,
      "152": 2916,
      "##p": 2917,
      "alberta": 2918,
      "##tain": 2919,
      "##vani": 2920,
      "solutions": 2921,
      "##xed": 2922,
      "shaped": 2923,
      "upcoming": 2924,
      "##lco": 2925,
      ")": 2926,
      "denial": 2927,
      "##法": 2928,
      "issued": 2929,
      "##ъ": 2930,
      "##shaw": 2931,
      "##py": 2932,
      "readers": 2933,
      "fifty": 2934,
      "##ago": 2935,
      "##shire": 2936,
      "giving": 2937,
      "edge": 2938,
      "##kaya": 2939,
      "##iac": 2940,
      "1722": 2941,
      "##о": 2942,
      "protecting": 2943,
      "pasta": 2944,
      "忠": 2945,
      "##eau": 2946,
      "##llah": 2947,
      "aux": 2948,
      "##vira": 2949,
      "excellent": 2950,
      "##ulate": 2951,
      "##rca": 2952,
      "##hir": 2953,
      "guests": 2954,
      "bright": 2955,
      "##sław": 2956,
      "##nai": 2957,
      "andres": 2958,
      "packet": 2959,
      "audiences": 2960,
      "m3": 2961,
      "##eborg": 2962,
      "##uez": 2963,
      "##vine": 2964,
      "fond": 2965,
      "shah": 2966,
      "warnings": 2967,
      "aesthetics": 2968,
      "##oo": 2969,
      "predictions": 2970,
      "##ₛ": 2971,
      "extreme": 2972,
      "proceeding": 2973,
      "##und": 2974,
      "dug": 2975,
      "##ste": 2976,
      "##原": 2977,
      "permitting": 2978,
      "##ides": 2979,
      "productivity": 2980,
      "##‘": 2981,
      "ש": 2982,
      "era": 2983,
      "vida": 2984,
      "implementing": 2985,
      "##54": 2986,
      "georgetown": 2987,
      "##nus": 2988,
      "counties": 2989,
      "frozen": 2990,
      "##dini": 2991,
      "images": 2992,
      "reflects": 2993,
      "donnelly": 2994,
      "goes": 2995,
      "stone": 2996,
      "##bos": 2997,
      "lost": 2998,
      "amanda": 2999,
      "engineered": 3000,
      "heron": 3001,
      "1986": 3002,
      "1989": 3003,
      "votes": 3004,
      "74": 3005,
      "know": 3006,
      "dispute": 3007,
      "pa": 3008,
      "##ged": 3009,
      "tim": 3010,
      "lifted": 3011,
      "lie": 3012,
      "pursuing": 3013,
      "ナ": 3014,
      "boxes": 3015,
      "depression": 3016,
      "architectural": 3017,
      "wishes": 3018,
      "wed": 3019,
      "lucian": 3020,
      "appreciate": 3021,
      "pacific": 3022,
      "##lin": 3023,
      "tenants": 3024,
      "accused": 3025,
      "maison": 3026,
      "diaz": 3027,
      "##ffle": 3028,
      "hands": 3029,
      "versus": 3030,
      "jumped": 3031,
      "##国": 3032,
      "compiled": 3033,
      "eventual": 3034,
      "constantly": 3035,
      "##ros": 3036,
      "reverse": 3037,
      "tay": 3038,
      "maintains": 3039,
      "##tsa": 3040,
      "fascinating": 3041,
      "wanda": 3042,
      "ψ": 3043,
      "##五": 3044,
      "##lynn": 3045,
      "wellington": 3046,
      "dancers": 3047,
      "##rich": 3048,
      "brought": 3049,
      "barns": 3050,
      "printer": 3051,
      "##room": 3052,
      "##kshi": 3053,
      "complexity": 3054,
      "santa": 3055,
      "##ivation": 3056,
      "##won": 3057,
      "remain": 3058,
      "clare": 3059,
      "trains": 3060,
      "シ": 3061,
      "142": 3062,
      "##tery": 3063,
      "##ulata": 3064,
      "effects": 3065,
      "##zai": 3066,
      "mma": 3067,
      "ⱼ": 3068,
      "ᵇ": 3069,
      "romance": 3070,
      "43": 3071,
      "partners": 3072,
      "character": 3073,
      "peer": 3074,
      "narration": 3075,
      "taps": 3076,
      "⁹": 3077,
      "petrol": 3078,
      "contemporary": 3079,
      "##bill": 3080,
      "round": 3081,
      "por": 3082,
      "女": 3083,
      "magistrate": 3084,
      "foods": 3085,
      "bones": 3086,
      "virus": 3087,
      "bey": 3088,
      "forwards": 3089,
      "voter": 3090,
      "##war": 3091,
      "gas": 3092,
      "verify": 3093,
      "jean": 3094,
      "ie": 3095,
      "##ನ": 3096,
      "##cton": 3097,
      "higher": 3098,
      "emanuel": 3099,
      "##rin": 3100,
      "##秀": 3101,
      "##ছ": 3102,
      "stefan": 3103,
      "frost": 3104,
      "tuition": 3105,
      "logical": 3106,
      "##tail": 3107,
      "truly": 3108,
      "abandoned": 3109,
      "concerning": 3110,
      "same": 3111,
      "bandwidth": 3112,
      "assessments": 3113,
      "rios": 3114,
      "tennessee": 3115,
      "##rn": 3116,
      "―": 3117,
      "officials": 3118,
      "actively": 3119,
      "##tat": 3120,
      "ist": 3121,
      "神": 3122,
      "clarissa": 3123,
      "##ull": 3124,
      "ache": 3125,
      "##orth": 3126,
      "antonia": 3127,
      "pierce": 3128,
      "backs": 3129,
      "submission": 3130,
      "facial": 3131,
      "edgar": 3132,
      "rep": 3133,
      "needing": 3134,
      "##ᴮ": 3135,
      "##iano": 3136,
      "##lak": 3137,
      "allan": 3138,
      "protein": 3139,
      "install": 3140,
      "mil": 3141,
      "friendship": 3142,
      "court": 3143,
      "sky": 3144,
      "##ntation": 3145,
      "prior": 3146,
      "wearing": 3147,
      "lister": 3148,
      "empathy": 3149,
      "##oun": 3150,
      "failures": 3151,
      "imported": 3152,
      "ashley": 3153,
      "##po": 3154,
      "holden": 3155,
      "technician": 3156,
      "posterior": 3157,
      "va": 3158,
      "acknowledging": 3159,
      "elisa": 3160,
      "##:": 3161,
      "##lla": 3162,
      "morris": 3163,
      "con": 3164,
      "##疒": 3165,
      "stanley": 3166,
      "conflicting": 3167,
      "competitor": 3168,
      "##দ": 3169,
      "tho": 3170,
      "russ": 3171,
      "ი": 3172,
      "alternate": 3173,
      "pressed": 3174,
      "##▪": 3175,
      "quoting": 3176,
      "elena": 3177,
      "##zza": 3178,
      "tara": 3179,
      "patrice": 3180,
      "aka": 3181,
      "joining": 3182,
      "##sar": 3183,
      "##mism": 3184,
      "accountable": 3185,
      "##min": 3186,
      "##ming": 3187,
      "##ᄂ": 3188,
      "schuster": 3189,
      "wi": 3190,
      "chong": 3191,
      "##lar": 3192,
      "の": 3193,
      "anterior": 3194,
      "261": 3195,
      "connected": 3196,
      "strictly": 3197,
      "appeals": 3198,
      "##jo": 3199,
      "newmarket": 3200,
      "##ifier": 3201,
      "ice": 3202,
      "comprehension": 3203,
      "##ifying": 3204,
      "draining": 3205,
      "fay": 3206,
      "debut": 3207,
      "japanese": 3208,
      "receives": 3209,
      "efficiently": 3210,
      "##dee": 3211,
      "##stadt": 3212,
      "gu": 3213,
      "transmit": 3214,
      "jan": 3215,
      "##29": 3216,
      "heller": 3217,
      "##的": 3218,
      "samson": 3219,
      "ह": 3220,
      "##try": 3221,
      "pale": 3222,
      "##sea": 3223,
      "jd": 3224,
      "behavioral": 3225,
      "ћ": 3226,
      "cal": 3227,
      "icon": 3228,
      "##yya": 3229,
      "trends": 3230,
      "##ר": 3231,
      "gilles": 3232,
      "refreshing": 3233,
      "gonzalez": 3234,
      "musica": 3235,
      "999": 3236,
      "photographic": 3237,
      "hasn": 3238,
      "buster": 3239,
      "venues": 3240,
      "maintained": 3241,
      "placement": 3242,
      "bread": 3243,
      "hail": 3244,
      "##tung": 3245,
      "##sher": 3246,
      "islam": 3247,
      "impressed": 3248,
      "lease": 3249,
      "charm": 3250,
      "sisters": 3251,
      "##年": 3252,
      "##lho": 3253,
      "##ru": 3254,
      "##rro": 3255,
      "broadband": 3256,
      "##ica": 3257,
      "belongs": 3258,
      "##wer": 3259,
      "##eal": 3260,
      "joke": 3261,
      "query": 3262,
      "##ps": 3263,
      "##岡": 3264,
      "jakob": 3265,
      "##–": 3266,
      "wan": 3267,
      "##ג": 3268,
      "messing": 3269,
      "dna": 3270,
      "1711": 3271,
      "london": 3272,
      "##werk": 3273,
      "hugh": 3274,
      "xi": 3275,
      "lang": 3276,
      "gaul": 3277,
      "##マ": 3278,
      "borrowing": 3279,
      "education": 3280,
      "##ᆸ": 3281,
      "intel": 3282,
      "kat": 3283,
      "arias": 3284,
      "pharmaceutical": 3285,
      "arches": 3286,
      "##fe": 3287,
      "##sin": 3288,
      "##rret": 3289,
      "zoo": 3290,
      "mt": 3291,
      "##olf": 3292,
      "okay": 3293,
      "cave": 3294,
      "muster": 3295,
      "spencer": 3296,
      "independent": 3297,
      "##22": 3298,
      "administrator": 3299,
      "##cam": 3300,
      "nate": 3301,
      "stale": 3302,
      "##arte": 3303,
      "##idge": 3304,
      "sharma": 3305,
      "##ne": 3306,
      "##ox": 3307,
      "regarding": 3308,
      "ash": 3309,
      "screwed": 3310,
      "hull": 3311,
      "soaring": 3312,
      "evaluated": 3313,
      "theft": 3314,
      "bath": 3315,
      "more": 3316,
      "killing": 3317,
      "##»": 3318,
      "rainforest": 3319,
      "quartet": 3320,
      "内": 3321,
      "sufficient": 3322,
      "nyu": 3323,
      "##sive": 3324,
      "greeting": 3325,
      "compassion": 3326,
      "1863": 3327,
      "##十": 3328,
      "##義": 3329,
      "drafting": 3330,
      "portion": 3331,
      "romans": 3332,
      "explanation": 3333,
      "decided": 3334,
      "335": 3335,
      "powers": 3336,
      "versions": 3337,
      "rusty": 3338,
      "fries": 3339,
      "constantin": 3340,
      "progress": 3341,
      "##安": 3342,
      "##uca": 3343,
      "nowhere": 3344,
      "wallis": 3345,
      "岡": 3346,
      "##ten": 3347,
      "1829": 3348,
      "afghan": 3349,
      "montpellier": 3350,
      "advisors": 3351,
      "##უ": 3352,
      "##戦": 3353,
      "prescription": 3354,
      "mortal": 3355,
      "##cise": 3356,
      "ship": 3357,
      "omitted": 3358,
      "esther": 3359,
      "##ador": 3360,
      "##bery": 3361,
      "ponder": 3362,
      "libretto": 3363,
      "manuscript": 3364,
      "rainy": 3365,
      "gag": 3366,
      "juris": 3367,
      "##rama": 3368,
      "limb": 3369,
      "cummings": 3370,
      "##,": 3371,
      "##zan": 3372,
      "##bilities": 3373,
      "interference": 3374,
      "happy": 3375,
      "expression": 3376,
      "wit": 3377,
      "##ʸ": 3378,
      "##rent": 3379,
      "##a1": 3380,
      "proficiency": 3381,
      "##タ": 3382,
      "torn": 3383,
      "reno": 3384,
      "concord": 3385,
      "fat": 3386,
      "nair": 3387,
      "rus": 3388,
      "aerodynamic": 3389,
      "hopefully": 3390,
      "##rkin": 3391,
      "engineers": 3392,
      "kan": 3393,
      "shot": 3394,
      "hc": 3395,
      "22nd": 3396,
      "nail": 3397,
      "seaside": 3398,
      "##ᴵ": 3399,
      "tape": 3400,
      "sultan": 3401,
      "安": 3402,
      "queue": 3403,
      "##kra": 3404,
      "angelo": 3405,
      "sophie": 3406,
      "conductor": 3407,
      "##fi": 3408,
      "##eric": 3409,
      "incoming": 3410,
      "##endez": 3411,
      "astro": 3412,
      "##air": 3413,
      "nino": 3414,
      "finding": 3415,
      "##gc": 3416,
      "letters": 3417,
      "typing": 3418,
      "tours": 3419,
      "scattered": 3420,
      "##lion": 3421,
      "careers": 3422,
      "sole": 3423,
      "figures": 3424,
      "##tch": 3425,
      "marcia": 3426,
      "lawyers": 3427,
      "clicking": 3428,
      "ᄒ": 3429,
      "yet": 3430,
      "catalyst": 3431,
      "⺼": 3432,
      "claims": 3433,
      "vehicles": 3434,
      "hinges": 3435,
      "angola": 3436,
      "##lley": 3437,
      "##ably": 3438,
      "##cian": 3439,
      "##berto": 3440,
      "door": 3441,
      "₹": 3442,
      "##osis": 3443,
      "aarhus": 3444,
      "differ": 3445,
      "##back": 3446,
      "##nostic": 3447,
      "raven": 3448,
      "appeal": 3449,
      "lack": 3450,
      "multi": 3451,
      "politically": 3452,
      "responsible": 3453,
      "##tama": 3454,
      "ս": 3455,
      "conflicts": 3456,
      "##olar": 3457,
      "matched": 3458,
      "agrees": 3459,
      "1753": 3460,
      "##ր": 3461,
      "banks": 3462,
      "defeat": 3463,
      "clearly": 3464,
      "##por": 3465,
      "##dog": 3466,
      "modeling": 3467,
      "##hta": 3468,
      "地": 3469,
      "##gration": 3470,
      "##zo": 3471,
      "egypt": 3472,
      "scanning": 3473,
      "consecutive": 3474,
      "##ₑ": 3475,
      "##nism": 3476,
      "from": 3477,
      "estrada": 3478,
      "1844": 3479,
      "##mide": 3480,
      "apparel": 3481,
      "numb": 3482,
      "graph": 3483,
      "ml": 3484,
      "##ahu": 3485,
      "handled": 3486,
      "##lord": 3487,
      "garrett": 3488,
      "fine": 3489,
      "signs": 3490,
      "genera": 3491,
      "##hima": 3492,
      "locks": 3493,
      "sigma": 3494,
      "gunter": 3495,
      "cis": 3496,
      "you": 3497,
      "chateau": 3498,
      "antony": 3499,
      "ร": 3500,
      "lending": 3501,
      "##endra": 3502,
      "traveled": 3503,
      "⅔": 3504,
      "##ffa": 3505,
      "##ische": 3506,
      "##viere": 3507,
      "dried": 3508,
      "timeless": 3509,
      "cs": 3510,
      "##plate": 3511,
      "bigger": 3512,
      "##owe": 3513,
      "ᅦ": 3514,
      "vineyard": 3515,
      "preserve": 3516,
      "##iary": 3517,
      "callie": 3518,
      "clearance": 3519,
      "sends": 3520,
      "mecca": 3521,
      "##suke": 3522,
      "accessed": 3523,
      "waterfront": 3524,
      "atm": 3525,
      "fees": 3526,
      "##rogen": 3527,
      "ratio": 3528,
      "brows": 3529,
      "hindi": 3530,
      "##tem": 3531,
      "eligible": 3532,
      "bomb": 3533,
      "open": 3534,
      "კ": 3535,
      "##kat": 3536,
      "winfield": 3537,
      "##use": 3538,
      "infectious": 3539,
      "germain": 3540,
      "coincide": 3541,
      "∆": 3542,
      "311": 3543,
      "occurs": 3544,
      "soto": 3545,
      "tab": 3546,
      "nutrient": 3547,
      "ernest": 3548,
      "valle": 3549,
      "ignacio": 3550,
      "##cene": 3551,
      "gunther": 3552,
      "shop": 3553,
      "monitors": 3554,
      "folks": 3555,
      "fernandez": 3556,
      "program": 3557,
      "sit": 3558,
      "enforced": 3559,
      "shelby": 3560,
      "indication": 3561,
      "##yp": 3562,
      "len": 3563,
      "shirt": 3564,
      "suggesting": 3565,
      "pl": 3566,
      "jug": 3567,
      "336": 3568,
      "ah": 3569,
      "real": 3570,
      "cardiovascular": 3571,
      "website": 3572,
      "knowledge": 3573,
      "…": 3574,
      "john": 3575,
      "freight": 3576,
      "##ules": 3577,
      "##loh": 3578,
      "京": 3579,
      "cm": 3580,
      "##ம": 3581,
      "convoy": 3582,
      "##<": 3583,
      "##dia": 3584,
      "passport": 3585,
      "þ": 3586,
      "ix": 3587,
      "shri": 3588,
      "##emy": 3589,
      "amend": 3590,
      "##lden": 3591,
      "orleans": 3592,
      "recipes": 3593,
      "##ج": 3594,
      "orders": 3595,
      "formal": 3596,
      "ャ": 3597,
      "disorder": 3598,
      "queen": 3599,
      "##dran": 3600,
      "##52": 3601,
      "handy": 3602,
      "##ː": 3603,
      "everyone": 3604,
      "focused": 3605,
      "##এ": 3606,
      "##vara": 3607,
      "shin": 3608,
      "postponed": 3609,
      "##bourne": 3610,
      "wake": 3611,
      "##⟩": 3612,
      "ʌ": 3613,
      "亻": 3614,
      "bennett": 3615,
      "evening": 3616,
      "packing": 3617,
      "projections": 3618,
      "₊": 3619,
      "processes": 3620,
      "lawson": 3621,
      "##lp": 3622,
      "prevailing": 3623,
      "##chia": 3624,
      "commence": 3625,
      "1738": 3626,
      "aviv": 3627,
      "dreams": 3628,
      "##pg": 3629,
      "absence": 3630,
      "loki": 3631,
      "iowa": 3632,
      "etienne": 3633,
      "ல": 3634,
      "swear": 3635,
      "resides": 3636,
      "89": 3637,
      "chen": 3638,
      "blackberry": 3639,
      "bremen": 3640,
      "##ken": 3641,
      "require": 3642,
      "moth": 3643,
      "sega": 3644,
      "slang": 3645,
      "##quet": 3646,
      "boyd": 3647,
      "labeling": 3648,
      "had": 3649,
      "本": 3650,
      "highland": 3651,
      "travelers": 3652,
      "’": 3653,
      "vladimir": 3654,
      "horrible": 3655,
      "fix": 3656,
      "han": 3657,
      "basic": 3658,
      "dante": 3659,
      "canadian": 3660,
      "1961": 3661,
      "rally": 3662,
      "##orro": 3663,
      "monitoring": 3664,
      "burger": 3665,
      "1890": 3666,
      "mom": 3667,
      "##ua": 3668,
      "civilians": 3669,
      "##dm": 3670,
      "troll": 3671,
      "อ": 3672,
      "newer": 3673,
      "##abe": 3674,
      "##ŋ": 3675,
      "##ndi": 3676,
      "etat": 3677,
      "##pet": 3678,
      "oxygen": 3679,
      "critic": 3680,
      "differently": 3681,
      "##ush": 3682,
      "720": 3683,
      "bitter": 3684,
      "##け": 3685,
      "rather": 3686,
      "##ists": 3687,
      "hussein": 3688,
      "明": 3689,
      "lane": 3690,
      "##₤": 3691,
      "ন": 3692,
      "weather": 3693,
      "elizabeth": 3694,
      "ssr": 3695,
      "victorian": 3696,
      "badges": 3697,
      "##uc": 3698,
      "supplier": 3699,
      "⁶": 3700,
      "fed": 3701,
      "preventing": 3702,
      "##zic": 3703,
      "guest": 3704,
      "mentioned": 3705,
      "tackle": 3706,
      "palestinian": 3707,
      "formed": 3708,
      "families": 3709,
      "involving": 3710,
      "perceived": 3711,
      "110": 3712,
      "##tya": 3713,
      "##া": 3714,
      "am": 3715,
      "acceptable": 3716,
      "sunny": 3717,
      "lukas": 3718,
      "spotting": 3719,
      "developed": 3720,
      "educational": 3721,
      "send": 3722,
      "skilled": 3723,
      "##ʉ": 3724,
      "##ados": 3725,
      "##rip": 3726,
      "spain": 3727,
      "moose": 3728,
      "ba": 3729,
      "prescribed": 3730,
      "complex": 3731,
      "reaches": 3732,
      "compression": 3733,
      "##lander": 3734,
      "##yana": 3735,
      "##ska": 3736,
      "girl": 3737,
      "reserve": 3738,
      "corresponding": 3739,
      "##ht": 3740,
      "ₕ": 3741,
      "boston": 3742,
      "honorable": 3743,
      "mail": 3744,
      "interventions": 3745,
      "##48": 3746,
      "gregor": 3747,
      "－": 3748,
      "ale": 3749,
      "##rer": 3750,
      "also": 3751,
      "perspective": 3752,
      "ease": 3753,
      "vibe": 3754,
      "maybe": 3755,
      "colleague": 3756,
      "isabella": 3757,
      "harris": 3758,
      "proof": 3759,
      "distributed": 3760,
      "libre": 3761,
      "composite": 3762,
      "organizes": 3763,
      "surprised": 3764,
      "needed": 3765,
      "##₉": 3766,
      "patience": 3767,
      "ᅪ": 3768,
      "##itative": 3769,
      "setup": 3770,
      "caleb": 3771,
      "qin": 3772,
      "##‚": 3773,
      "lesley": 3774,
      "island": 3775,
      "ふ": 3776,
      "rat": 3777,
      "br": 3778,
      "##ಾ": 3779,
      "liberty": 3780,
      "մ": 3781,
      "##発": 3782,
      "drafted": 3783,
      "voice": 3784,
      "hearings": 3785,
      "1625": 3786,
      "unusually": 3787,
      "rosa": 3788,
      "roommate": 3789,
      "##vard": 3790,
      "##resses": 3791,
      "nomination": 3792,
      "##iling": 3793,
      "petra": 3794,
      "##chang": 3795,
      "either": 3796,
      "angry": 3797,
      "##∅": 3798,
      "##ries": 3799,
      "ロ": 3800,
      "##cts": 3801,
      "stacked": 3802,
      "product": 3803,
      "##ld": 3804,
      "bags": 3805,
      "york": 3806,
      "cuisine": 3807,
      "##icle": 3808,
      "coal": 3809,
      "fabrication": 3810,
      "##iciencies": 3811,
      "##amy": 3812,
      "lady": 3813,
      "dalton": 3814,
      "saw": 3815,
      "colours": 3816,
      "1877": 3817,
      "##ssel": 3818,
      "##time": 3819,
      "64": 3820,
      "washing": 3821,
      "astronaut": 3822,
      "pun": 3823,
      "owen": 3824,
      "##λ": 3825,
      "veteran": 3826,
      "due": 3827,
      "##巿": 3828,
      "rights": 3829,
      "mechanic": 3830,
      "प": 3831,
      "galactic": 3832,
      "visions": 3833,
      "missions": 3834,
      "320": 3835,
      "##lard": 3836,
      "passages": 3837,
      "jameson": 3838,
      "rs": 3839,
      "ames": 3840,
      "主": 3841,
      "looming": 3842,
      "collection": 3843,
      "cola": 3844,
      "consult": 3845,
      "prom": 3846,
      "##?": 3847,
      "lux": 3848,
      "##hui": 3849,
      "privileges": 3850,
      "##rigue": 3851,
      "low": 3852,
      "decade": 3853,
      "##mps": 3854,
      "core": 3855,
      "taxpayer": 3856,
      "hudson": 3857,
      "##य": 3858,
      "pioneering": 3859,
      "freeman": 3860,
      "leopold": 3861,
      "##ury": 3862,
      "travellers": 3863,
      "superior": 3864,
      "moderator": 3865,
      "fauna": 3866,
      "continuous": 3867,
      "maynard": 3868,
      "hawker": 3869,
      "##ce": 3870,
      "acceptance": 3871,
      "##iente": 3872,
      "xander": 3873,
      "stain": 3874,
      "auditor": 3875,
      "ruth": 3876,
      "showed": 3877,
      "jumping": 3878,
      "##ney": 3879,
      "carr": 3880,
      "composer": 3881,
      "mel": 3882,
      "champagne": 3883,
      "##uting": 3884,
      "molina": 3885,
      "journals": 3886,
      "emission": 3887,
      "hansen": 3888,
      "##mers": 3889,
      "bai": 3890,
      "baker": 3891,
      "##wara": 3892,
      "marian": 3893,
      "clair": 3894,
      "##app": 3895,
      "lit": 3896,
      "plant": 3897,
      "healing": 3898,
      "please": 3899,
      "##rug": 3900,
      "##cona": 3901,
      "ruby": 3902,
      "lopez": 3903,
      "clay": 3904,
      "cleanup": 3905,
      "penang": 3906,
      "##js": 3907,
      "ranking": 3908,
      "##nne": 3909,
      "clouds": 3910,
      "biggest": 3911,
      "##raphic": 3912,
      "coordinate": 3913,
      "maha": 3914,
      "noble": 3915,
      "credible": 3916,
      "##hine": 3917,
      "get": 3918,
      "pioneer": 3919,
      "kobe": 3920,
      "af": 3921,
      "mediation": 3922,
      "fragrance": 3923,
      "2": 3924,
      "skin": 3925,
      "best": 3926,
      "raised": 3927,
      "1984": 3928,
      "podium": 3929,
      "##國": 3930,
      "##ples": 3931,
      "land": 3932,
      "accurately": 3933,
      "fear": 3934,
      "conde": 3935,
      "wow": 3936,
      "ta": 3937,
      "listings": 3938,
      "nerve": 3939,
      "##scribe": 3940,
      "##ments": 3941,
      "campo": 3942,
      "poem": 3943,
      "knowing": 3944,
      "318": 3945,
      "##lter": 3946,
      "უ": 3947,
      "州": 3948,
      "falcon": 3949,
      "occurring": 3950,
      "toxic": 3951,
      "##oon": 3952,
      "jay": 3953,
      "sentence": 3954,
      "landlord": 3955,
      "##♭": 3956,
      "contact": 3957,
      "##sworth": 3958,
      "bathing": 3959,
      "##elle": 3960,
      "referendum": 3961,
      "tech": 3962,
      "bass": 3963,
      "procedures": 3964,
      "laughter": 3965,
      "tre": 3966,
      "included": 3967,
      "assigns": 3968,
      "billing": 3969,
      "gave": 3970,
      "essential": 3971,
      "##nding": 3972,
      "##ucher": 3973,
      "##tv": 3974,
      "six": 3975,
      "cancellation": 3976,
      "starter": 3977,
      "registered": 3978,
      "267": 3979,
      "inter": 3980,
      "##iculate": 3981,
      "quantity": 3982,
      "confusing": 3983,
      "ʔ": 3984,
      "1826": 3985,
      "##atus": 3986,
      "whisper": 3987,
      "jase": 3988,
      "examine": 3989,
      "harassment": 3990,
      "cdc": 3991,
      "##&": 3992,
      "##yra": 3993,
      "johns": 3994,
      "gloss": 3995,
      "generally": 3996,
      "discarded": 3997,
      "paired": 3998,
      "##ե": 3999,
      "loire": 4000,
      "п": 4001,
      "utilized": 4002,
      "await": 4003,
      "figured": 4004,
      "tallinn": 4005,
      "chicago": 4006,
      "##hari": 4007,
      "nominee": 4008,
      "##burgh": 4009,
      "responsibility": 4010,
      "zac": 4011,
      "labyrinth": 4012,
      "maxwell": 4013,
      "wide": 4014,
      "##=": 4015,
      "kato": 4016,
      "interpretation": 4017,
      "won": 4018,
      "##you": 4019,
      "vista": 4020,
      "compound": 4021,
      "archibald": 4022,
      "evans": 4023,
      "rd": 4024,
      "kade": 4025,
      "contracts": 4026,
      "guns": 4027,
      "¹": 4028,
      "tricks": 4029,
      "pluto": 4030,
      "##ans": 4031,
      "dex": 4032,
      "##croft": 4033,
      "illustrate": 4034,
      "apex": 4035,
      "account": 4036,
      "##男": 4037,
      "##rates": 4038,
      "lastly": 4039,
      "##itas": 4040,
      "mons": 4041,
      "bradley": 4042,
      "visit": 4043,
      "mag": 4044,
      "##ץ": 4045,
      "##am": 4046,
      "##ave": 4047,
      "ecosystems": 4048,
      "##sa": 4049,
      "##ika": 4050,
      "temporal": 4051,
      "approximate": 4052,
      "cher": 4053,
      "managing": 4054,
      "##ell": 4055,
      "dialects": 4056,
      "italia": 4057,
      "worker": 4058,
      "filming": 4059,
      "grounds": 4060,
      "##vili": 4061,
      "##bird": 4062,
      "##ط": 4063,
      "grains": 4064,
      "prompting": 4065,
      "emergency": 4066,
      "##rank": 4067,
      "witnessed": 4068,
      "podcast": 4069,
      "14": 4070,
      "blog": 4071,
      "villages": 4072,
      "johan": 4073,
      "blending": 4074,
      "another": 4075,
      "##sko": 4076,
      "load": 4077,
      "rabbi": 4078,
      "king": 4079,
      "johor": 4080,
      "##dder": 4081,
      "station": 4082,
      "automated": 4083,
      "##br": 4084,
      "access": 4085,
      "oversee": 4086,
      "sketches": 4087,
      "##愛": 4088,
      "ے": 4089,
      "kc": 4090,
      "jem": 4091,
      "weiss": 4092,
      "secretariat": 4093,
      "flash": 4094,
      "adverse": 4095,
      "##orf": 4096,
      "probability": 4097,
      "metallic": 4098,
      "knee": 4099,
      "nets": 4100,
      "crossing": 4101,
      "##sford": 4102,
      "debt": 4103,
      "01": 4104,
      "cambridge": 4105,
      "postal": 4106,
      "##ი": 4107,
      "##scan": 4108,
      "vi": 4109,
      "jacques": 4110,
      "expressing": 4111,
      "##ers": 4112,
      "app": 4113,
      "peoples": 4114,
      "##¹": 4115,
      "feed": 4116,
      "investigate": 4117,
      "incidence": 4118,
      "№": 4119,
      "allows": 4120,
      "operating": 4121,
      "reaction": 4122,
      "高": 4123,
      "detained": 4124,
      "his": 4125,
      "trial": 4126,
      "positive": 4127,
      "capable": 4128,
      "short": 4129,
      "spreading": 4130,
      "d": 4131,
      "գ": 4132,
      "##keeper": 4133,
      "performed": 4134,
      "coin": 4135,
      "1806": 4136,
      "##iot": 4137,
      "##top": 4138,
      "replica": 4139,
      "enhanced": 4140,
      "##ffie": 4141,
      "##icio": 4142,
      "61": 4143,
      "motivation": 4144,
      "deed": 4145,
      "##fying": 4146,
      "ᵈ": 4147,
      "ʲ": 4148,
      "fleeting": 4149,
      "financial": 4150,
      "##gs": 4151,
      "##ipes": 4152,
      "tourists": 4153,
      "##pile": 4154,
      "slaughter": 4155,
      "leader": 4156,
      "##tone": 4157,
      "##yang": 4158,
      "1683": 4159,
      "##ـ": 4160,
      "treatment": 4161,
      "##口": 4162,
      "##rrado": 4163,
      "los": 4164,
      "mercedes": 4165,
      "klan": 4166,
      "chao": 4167,
      "reclamation": 4168,
      "(": 4169,
      "##ata": 4170,
      "##had": 4171,
      "sensory": 4172,
      "carolina": 4173,
      "spell": 4174,
      "ل": 4175,
      "foot": 4176,
      "ruin": 4177,
      "organizers": 4178,
      "##sol": 4179,
      "rational": 4180,
      "##ன": 4181,
      "980": 4182,
      "unfortunately": 4183,
      "creators": 4184,
      "ordinary": 4185,
      "serb": 4186,
      "1991": 4187,
      "bell": 4188,
      "kinetic": 4189,
      "##ulo": 4190,
      "##swell": 4191,
      "instability": 4192,
      "volumes": 4193,
      "##ption": 4194,
      "，": 4195,
      "alex": 4196,
      "1878": 4197,
      "ɕ": 4198,
      "stage": 4199,
      "##band": 4200,
      "shades": 4201,
      "central": 4202,
      "##cope": 4203,
      "##mite": 4204,
      "lush": 4205,
      "##lux": 4206,
      "faces": 4207,
      "lime": 4208,
      "down": 4209,
      "bay": 4210,
      "##rgan": 4211,
      "circulating": 4212,
      "ch": 4213,
      "##lah": 4214,
      "mari": 4215,
      "depend": 4216,
      "change": 4217,
      "ramos": 4218,
      "##hand": 4219,
      "##pie": 4220,
      "pressures": 4221,
      "support": 4222,
      "weigh": 4223,
      "haitian": 4224,
      "sonya": 4225,
      "damp": 4226,
      "##ł": 4227,
      "ı": 4228,
      "cass": 4229,
      "maid": 4230,
      "##uri": 4231,
      "tangent": 4232,
      "asthma": 4233,
      "1100": 4234,
      "star": 4235,
      "aide": 4236,
      "provisional": 4237,
      "accredited": 4238,
      "routing": 4239,
      "jocelyn": 4240,
      "views": 4241,
      "novella": 4242,
      "reminds": 4243,
      "struck": 4244,
      "annabelle": 4245,
      "sharp": 4246,
      "##wyn": 4247,
      "doll": 4248,
      "##aran": 4249,
      "levi": 4250,
      "##lett": 4251,
      "リ": 4252,
      "feb": 4253,
      "acre": 4254,
      "nationwide": 4255,
      "knows": 4256,
      "awarded": 4257,
      "frontal": 4258,
      "dentist": 4259,
      "light": 4260,
      "tide": 4261,
      "unchanged": 4262,
      "₄": 4263,
      "consist": 4264,
      "suspicious": 4265,
      "##フ": 4266,
      "colleagues": 4267,
      "##wa": 4268,
      "uc": 4269,
      "reduce": 4270,
      "granting": 4271,
      "生": 4272,
      "hourly": 4273,
      "##tze": 4274,
      "backed": 4275,
      "findings": 4276,
      "socio": 4277,
      "##elles": 4278,
      "visas": 4279,
      "##aks": 4280,
      "forum": 4281,
      "willard": 4282,
      "258": 4283,
      "##wood": 4284,
      "##rate": 4285,
      "vance": 4286,
      "fanny": 4287,
      "##uj": 4288,
      "cree": 4289,
      "forth": 4290,
      "alberto": 4291,
      "##urrent": 4292,
      "synthetic": 4293,
      "##oning": 4294,
      "##yed": 4295,
      "evaluation": 4296,
      "castle": 4297,
      "nitrogen": 4298,
      "740": 4299,
      "##acy": 4300,
      "quoted": 4301,
      "##fied": 4302,
      "basel": 4303,
      "##gina": 4304,
      "flexible": 4305,
      "seven": 4306,
      "airport": 4307,
      "levin": 4308,
      "##|": 4309,
      "dee": 4310,
      "##jit": 4311,
      "##eme": 4312,
      "injured": 4313,
      "mornings": 4314,
      "417": 4315,
      "kam": 4316,
      "emi": 4317,
      "stream": 4318,
      "borders": 4319,
      "##tting": 4320,
      "##श": 4321,
      "##sboro": 4322,
      "1969": 4323,
      "raoul": 4324,
      "carleton": 4325,
      "sammy": 4326,
      "doing": 4327,
      "chester": 4328,
      "refrain": 4329,
      "mine": 4330,
      "malone": 4331,
      "rushing": 4332,
      "ར": 4333,
      "independence": 4334,
      "##ɛ": 4335,
      "##ds": 4336,
      "markets": 4337,
      "##bler": 4338,
      "told": 4339,
      "jessica": 4340,
      "☆": 4341,
      "unlike": 4342,
      "##hdi": 4343,
      "##fen": 4344,
      "##nin": 4345,
      "##erland": 4346,
      "##pu": 4347,
      "activities": 4348,
      "1751": 4349,
      "necessity": 4350,
      "earlier": 4351,
      "##eka": 4352,
      "diagnostic": 4353,
      "##ᵐ": 4354,
      "1745": 4355,
      "explores": 4356,
      "##fera": 4357,
      "1580": 4358,
      "marsh": 4359,
      "activate": 4360,
      "overlooked": 4361,
      "254": 4362,
      "sd": 4363,
      "officer": 4364,
      "##aid": 4365,
      "leash": 4366,
      "showcase": 4367,
      "##º": 4368,
      "shock": 4369,
      "pressure": 4370,
      "duck": 4371,
      "##oll": 4372,
      "cousin": 4373,
      "zagreb": 4374,
      "cinematic": 4375,
      "##rence": 4376,
      "##can": 4377,
      "woo": 4378,
      "##aya": 4379,
      "meaning": 4380,
      "tank": 4381,
      "night": 4382,
      "buttons": 4383,
      "##ว": 4384,
      "krishna": 4385,
      "##erre": 4386,
      "ind": 4387,
      "##rissa": 4388,
      "huron": 4389,
      "##uba": 4390,
      "wife": 4391,
      "##永": 4392,
      "##rcle": 4393,
      "pueblo": 4394,
      "packets": 4395,
      "dolly": 4396,
      "##poo": 4397,
      "##ez": 4398,
      "isle": 4399,
      "1708": 4400,
      "##boot": 4401,
      "##sant": 4402,
      "experiences": 4403,
      "lots": 4404,
      "premises": 4405,
      "gasp": 4406,
      "buena": 4407,
      "中": 4408,
      "##ksha": 4409,
      "levels": 4410,
      "judicial": 4411,
      "##dhi": 4412,
      "##xton": 4413,
      "foyer": 4414,
      "restrict": 4415,
      "anime": 4416,
      "spikes": 4417,
      "cho": 4418,
      "kicks": 4419,
      "tam": 4420,
      "auguste": 4421,
      "add": 4422,
      "athletes": 4423,
      "appetite": 4424,
      "##地": 4425,
      "lieu": 4426,
      "##yuan": 4427,
      "artifact": 4428,
      "priced": 4429,
      "repeated": 4430,
      "##х": 4431,
      "m²": 4432,
      "##rley": 4433,
      "##ogen": 4434,
      "upset": 4435,
      "fry": 4436,
      "ª": 4437,
      "reproduce": 4438,
      "sh": 4439,
      "creativity": 4440,
      "##vsky": 4441,
      "jarvis": 4442,
      "governmental": 4443,
      "ing": 4444,
      "321": 4445,
      "professional": 4446,
      "thick": 4447,
      "##·": 4448,
      "tube": 4449,
      "kirk": 4450,
      "theory": 4451,
      "rick": 4452,
      "limitations": 4453,
      "quay": 4454,
      "death": 4455,
      "cat": 4456,
      "##entes": 4457,
      "alexis": 4458,
      "marek": 4459,
      "め": 4460,
      "家": 4461,
      "dictator": 4462,
      "temperatures": 4463,
      "news": 4464,
      "gail": 4465,
      "philosophy": 4466,
      "saving": 4467,
      "##kon": 4468,
      "fallen": 4469,
      "summarized": 4470,
      "€": 4471,
      "biomass": 4472,
      "cushion": 4473,
      "savannah": 4474,
      "initiative": 4475,
      "1642": 4476,
      "##eet": 4477,
      "mix": 4478,
      "##icia": 4479,
      "divert": 4480,
      "defense": 4481,
      "lincoln": 4482,
      "ʳ": 4483,
      "##›": 4484,
      "##ou": 4485,
      "##hus": 4486,
      "ancestors": 4487,
      "loco": 4488,
      "enabled": 4489,
      "substantial": 4490,
      "interim": 4491,
      "target": 4492,
      "neural": 4493,
      "mca": 4494,
      "liability": 4495,
      "tanks": 4496,
      "ব": 4497,
      "almeida": 4498,
      "##idia": 4499,
      "spun": 4500,
      "lai": 4501,
      "tabitha": 4502,
      "#": 4503,
      "honduras": 4504,
      "ea": 4505,
      "##小": 4506,
      "poor": 4507,
      "##isation": 4508,
      "##od": 4509,
      "dorian": 4510,
      "##kiewicz": 4511,
      "rec": 4512,
      "metal": 4513,
      "opera": 4514,
      "form": 4515,
      "kindly": 4516,
      "overall": 4517,
      "guiding": 4518,
      "afi": 4519,
      "receive": 4520,
      "catalogue": 4521,
      "tons": 4522,
      "strengths": 4523,
      "##一": 4524,
      "delaney": 4525,
      "##her": 4526,
      "[": 4527,
      "frame": 4528,
      "organizer": 4529,
      "fragments": 4530,
      "hazards": 4531,
      "patriarch": 4532,
      "##ett": 4533,
      "betsy": 4534,
      "lunch": 4535,
      "オ": 4536,
      "ancestry": 4537,
      "accents": 4538,
      "regeneration": 4539,
      "mary": 4540,
      "experimentation": 4541,
      "##ड": 4542,
      "conservation": 4543,
      "ivan": 4544,
      "phyllis": 4545,
      "sanford": 4546,
      "aims": 4547,
      "##dies": 4548,
      "gifts": 4549,
      "highlight": 4550,
      "implement": 4551,
      "##æ": 4552,
      "govern": 4553,
      "##ж": 4554,
      "##？": 4555,
      "##amen": 4556,
      "universite": 4557,
      "opt": 4558,
      "1654": 4559,
      "identifying": 4560,
      "eugene": 4561,
      "turbo": 4562,
      "zones": 4563,
      "angela": 4564,
      "virtual": 4565,
      "##box": 4566,
      "kenton": 4567,
      "ru": 4568,
      "blood": 4569,
      "demonstrations": 4570,
      "kira": 4571,
      "116": 4572,
      "ui": 4573,
      "golf": 4574,
      "##nikov": 4575,
      "sailing": 4576,
      "brown": 4577,
      "unemployed": 4578,
      "##yde": 4579,
      "##ente": 4580,
      "##ტ": 4581,
      "##enna": 4582,
      "forte": 4583,
      "##olis": 4584,
      "##mobile": 4585,
      "168": 4586,
      "arcade": 4587,
      "ao": 4588,
      "events": 4589,
      "concerns": 4590,
      "systematic": 4591,
      "partnerships": 4592,
      "##cchi": 4593,
      "##dle": 4594,
      "fighters": 4595,
      "footprint": 4596,
      "autonomous": 4597,
      "verb": 4598,
      "plastics": 4599,
      "##coll": 4600,
      "##jal": 4601,
      "fai": 4602,
      "##ब": 4603,
      "##ut": 4604,
      "##rzy": 4605,
      "journalist": 4606,
      "id": 4607,
      "haiti": 4608,
      "cebu": 4609,
      "void": 4610,
      "camden": 4611,
      "trademark": 4612,
      "cafes": 4613,
      "newark": 4614,
      "reilly": 4615,
      "closer": 4616,
      "unused": 4617,
      "departure": 4618,
      "maya": 4619,
      "cot": 4620,
      "空": 4621,
      "biologist": 4622,
      "sydney": 4623,
      "branch": 4624,
      "harm": 4625,
      "jaime": 4626,
      "breeding": 4627,
      "boot": 4628,
      "見": 4629,
      "ニ": 4630,
      "##lide": 4631,
      "ᄋ": 4632,
      "##lice": 4633,
      "sedan": 4634,
      "marin": 4635,
      "司": 4636,
      "issuing": 4637,
      "yue": 4638,
      "##lva": 4639,
      "provisions": 4640,
      "vc": 4641,
      "drove": 4642,
      "##truct": 4643,
      "committed": 4644,
      "##sor": 4645,
      "##rix": 4646,
      "訁": 4647,
      "tobacco": 4648,
      "##rc": 4649,
      "sectors": 4650,
      "›": 4651,
      "portable": 4652,
      "nicholas": 4653,
      "marvel": 4654,
      "aimed": 4655,
      "rana": 4656,
      "lemon": 4657,
      "emil": 4658,
      "vin": 4659,
      "accounting": 4660,
      "##bson": 4661,
      "ᄂ": 4662,
      "##rra": 4663,
      "!": 4664,
      "appealing": 4665,
      "carmel": 4666,
      "yank": 4667,
      "daughter": 4668,
      "bon": 4669,
      "commitments": 4670,
      "transactions": 4671,
      "##心": 4672,
      "##gaard": 4673,
      "mare": 4674,
      "consisting": 4675,
      "##art": 4676,
      "premier": 4677,
      "##₅": 4678,
      "burden": 4679,
      "losing": 4680,
      "bonfire": 4681,
      "lo": 4682,
      "2006": 4683,
      "excessive": 4684,
      "avoiding": 4685,
      "syed": 4686,
      "sins": 4687,
      "##deh": 4688,
      "ɨ": 4689,
      "erica": 4690,
      "hr": 4691,
      "##ය": 4692,
      "##utz": 4693,
      "brazilian": 4694,
      "kai": 4695,
      "zoe": 4696,
      "425": 4697,
      "infused": 4698,
      "##ws": 4699,
      "1818": 4700,
      "##graphy": 4701,
      "1947": 4702,
      "erwin": 4703,
      "ot": 4704,
      "anita": 4705,
      "info": 4706,
      "1692": 4707,
      "bolt": 4708,
      "shopping": 4709,
      "injection": 4710,
      "##zier": 4711,
      "jennings": 4712,
      "##bib": 4713,
      "##gler": 4714,
      "expenditure": 4715,
      "spies": 4716,
      "claudio": 4717,
      "guise": 4718,
      "ngo": 4719,
      "##ition": 4720,
      "135": 4721,
      "loaded": 4722,
      "hulk": 4723,
      "astrid": 4724,
      "w": 4725,
      "1792": 4726,
      "1715": 4727,
      "hash": 4728,
      "somebody": 4729,
      "##gon": 4730,
      "pride": 4731,
      "armed": 4732,
      "pressing": 4733,
      "##sper": 4734,
      "daly": 4735,
      "oliver": 4736,
      "pali": 4737,
      "kia": 4738,
      "1939": 4739,
      "scanner": 4740,
      "39": 4741,
      "exceeds": 4742,
      "##vir": 4743,
      "paw": 4744,
      "##st": 4745,
      "##jan": 4746,
      "ultimately": 4747,
      "139": 4748,
      "##igen": 4749,
      "schwarz": 4750,
      "##ivating": 4751,
      "goodwill": 4752,
      "raising": 4753,
      "jp": 4754,
      "updated": 4755,
      "b1": 4756,
      "gunnar": 4757,
      "##tsk": 4758,
      "february": 4759,
      "female": 4760,
      "video": 4761,
      "1835": 4762,
      "143": 4763,
      "##ype": 4764,
      "cosmos": 4765,
      "や": 4766,
      "drew": 4767,
      "guilty": 4768,
      "##uld": 4769,
      "traveller": 4770,
      "observes": 4771,
      "front": 4772,
      "laboratory": 4773,
      "1979": 4774,
      "artist": 4775,
      "##面": 4776,
      "##enes": 4777,
      "egg": 4778,
      "##木": 4779,
      "##omics": 4780,
      "weeks": 4781,
      "taste": 4782,
      "##imate": 4783,
      "air": 4784,
      "employer": 4785,
      "д": 4786,
      "elite": 4787,
      "parliamentary": 4788,
      "irving": 4789,
      "favor": 4790,
      "##aa": 4791,
      "winnipeg": 4792,
      "scales": 4793,
      "lent": 4794,
      "##ingham": 4795,
      "reynolds": 4796,
      "je": 4797,
      "sherwood": 4798,
      "young": 4799,
      "rise": 4800,
      "meetings": 4801,
      "simulation": 4802,
      "attitudes": 4803,
      "##tov": 4804,
      "nah": 4805,
      "elf": 4806,
      "qualifications": 4807,
      "##eous": 4808,
      "1787": 4809,
      "limiting": 4810,
      "possible": 4811,
      "##ular": 4812,
      "wedding": 4813,
      "##¨": 4814,
      "cinema": 4815,
      "turnpike": 4816,
      "tribal": 4817,
      "employee": 4818,
      "##rva": 4819,
      "05": 4820,
      "prompted": 4821,
      "benson": 4822,
      "mori": 4823,
      "##uke": 4824,
      "##文": 4825,
      "residence": 4826,
      "motivated": 4827,
      "roland": 4828,
      "suspension": 4829,
      "crews": 4830,
      "1759": 4831,
      "rejected": 4832,
      "reds": 4833,
      "gets": 4834,
      "gabrielle": 4835,
      "##dly": 4836,
      "memorial": 4837,
      "griffin": 4838,
      "worries": 4839,
      "enjoys": 4840,
      "avatar": 4841,
      "##צ": 4842,
      "regulation": 4843,
      "##neuve": 4844,
      "##thermal": 4845,
      "ᴮ": 4846,
      "csa": 4847,
      "##mart": 4848,
      "cast": 4849,
      "operas": 4850,
      "##igate": 4851,
      "innovative": 4852,
      "##nded": 4853,
      "capt": 4854,
      "##emia": 4855,
      "part": 4856,
      "mart": 4857,
      "##ergy": 4858,
      "ravi": 4859,
      "advances": 4860,
      "##cine": 4861,
      "sunset": 4862,
      "ideas": 4863,
      "##dson": 4864,
      "normal": 4865,
      "##ota": 4866,
      "rudy": 4867,
      "back": 4868,
      "tile": 4869,
      "syria": 4870,
      "geologic": 4871,
      "maru": 4872,
      "##efe": 4873,
      "##chev": 4874,
      "imposed": 4875,
      "cottage": 4876,
      "1928": 4877,
      "##hesion": 4878,
      "eh": 4879,
      "##inho": 4880,
      "ministry": 4881,
      "deny": 4882,
      "##ত": 4883,
      "bishop": 4884,
      "bryn": 4885,
      "reinforcement": 4886,
      "creditors": 4887,
      "え": 4888,
      "pier": 4889,
      "formations": 4890,
      "##trip": 4891,
      "##ी": 4892,
      "##tish": 4893,
      "edible": 4894,
      "construct": 4895,
      "revealed": 4896,
      "banking": 4897,
      "pamela": 4898,
      "##iner": 4899,
      "##⁵": 4900,
      "ム": 4901,
      "##rai": 4902,
      "spare": 4903,
      "pops": 4904,
      "bled": 4905,
      "sued": 4906,
      "til": 4907,
      "later": 4908,
      "##sta": 4909,
      "latin": 4910,
      "canon": 4911,
      "humor": 4912,
      "##urg": 4913,
      "lombard": 4914,
      "sharon": 4915,
      "vote": 4916,
      "##fish": 4917,
      "hannah": 4918,
      "romania": 4919,
      "inspector": 4920,
      "##ɑ": 4921,
      "linger": 4922,
      "montana": 4923,
      "carlos": 4924,
      "11": 4925,
      "suffer": 4926,
      "population": 4927,
      "220": 4928,
      "shall": 4929,
      "fontana": 4930,
      "dev": 4931,
      "tools": 4932,
      "men": 4933,
      "##ivity": 4934,
      "##†": 4935,
      "direction": 4936,
      "reggie": 4937,
      "demons": 4938,
      "stimulus": 4939,
      "##sef": 4940,
      "molecular": 4941,
      "beauty": 4942,
      "labor": 4943,
      "wrecked": 4944,
      "275": 4945,
      "patsy": 4946,
      "##ibe": 4947,
      "rake": 4948,
      "respecting": 4949,
      "systemic": 4950,
      "##8": 4951,
      "band": 4952,
      "turkey": 4953,
      "##ausen": 4954,
      "ford": 4955,
      "##tai": 4956,
      "departments": 4957,
      "ends": 4958,
      "emerging": 4959,
      "suggestion": 4960,
      "graduated": 4961,
      "gloucester": 4962,
      "arthritis": 4963,
      "##ᄉ": 4964,
      "outlook": 4965,
      "cases": 4966,
      "hers": 4967,
      "##ₒ": 4968,
      "mixing": 4969,
      "##oi": 4970,
      "dong": 4971,
      "cortes": 4972,
      "##laid": 4973,
      "##ckle": 4974,
      "caused": 4975,
      "##ae": 4976,
      "268": 4977,
      "iraqi": 4978,
      "stein": 4979,
      "##vao": 4980,
      "ville": 4981,
      "##ւ": 4982,
      "##κ": 4983,
      "blackout": 4984,
      "##rock": 4985,
      "promptly": 4986,
      "canvas": 4987,
      "chronicles": 4988,
      "##rade": 4989,
      "lip": 4990,
      "##pi": 4991,
      "inauguration": 4992,
      "osborne": 4993,
      "281": 4994,
      "guadalupe": 4995,
      "##ו": 4996,
      "##ination": 4997,
      "beau": 4998,
      "1869": 4999,
      "guardians": 5000,
      "1884": 5001,
      "meals": 5002,
      "350": 5003,
      "љ": 5004,
      "##emon": 5005,
      "hadn": 5006,
      "classified": 5007,
      "surgical": 5008,
      "1786": 5009,
      "series": 5010,
      "##ь": 5011,
      "boom": 5012,
      "##bridge": 5013,
      "therapist": 5014,
      "null": 5015,
      "##station": 5016,
      "##hala": 5017,
      "##zam": 5018,
      "##hone": 5019,
      "attend": 5020,
      "stellar": 5021,
      "##ng": 5022,
      "ර": 5023,
      "park": 5024,
      "2000": 5025,
      "##une": 5026,
      "將": 5027,
      "##nese": 5028,
      "basalt": 5029,
      "##iga": 5030,
      "##cking": 5031,
      "##dine": 5032,
      "dl": 5033,
      "agents": 5034,
      "joshua": 5035,
      "〉": 5036,
      "drainage": 5037,
      "##⊕": 5038,
      "advise": 5039,
      "theodor": 5040,
      "throw": 5041,
      "dmitri": 5042,
      "empire": 5043,
      "pick": 5044,
      "police": 5045,
      "illness": 5046,
      "budapest": 5047,
      "ා": 5048,
      "##≡": 5049,
      "re": 5050,
      "woods": 5051,
      "freeze": 5052,
      "1650": 5053,
      "owe": 5054,
      "signed": 5055,
      "##chon": 5056,
      "##tite": 5057,
      "ம": 5058,
      "label": 5059,
      "##hed": 5060,
      "laurel": 5061,
      "freaking": 5062,
      "end": 5063,
      "editorial": 5064,
      "##kala": 5065,
      "02": 5066,
      "##igan": 5067,
      "##ons": 5068,
      "##19": 5069,
      "elder": 5070,
      "therese": 5071,
      "1628": 5072,
      "book": 5073,
      "##dna": 5074,
      "authorized": 5075,
      "investments": 5076,
      "1988": 5077,
      "##chenko": 5078,
      "##ᵃ": 5079,
      "texture": 5080,
      "ウ": 5081,
      "##entation": 5082,
      "##dation": 5083,
      "sketch": 5084,
      "katz": 5085,
      "historical": 5086,
      "conclude": 5087,
      "##tori": 5088,
      "##kti": 5089,
      "safeguard": 5090,
      "##tech": 5091,
      "taken": 5092,
      "##gal": 5093,
      "fragile": 5094,
      "ほ": 5095,
      "puff": 5096,
      "proceed": 5097,
      "vacation": 5098,
      "communities": 5099,
      "lego": 5100,
      "table": 5101,
      "administered": 5102,
      "torch": 5103,
      "501": 5104,
      "lawn": 5105,
      "stretching": 5106,
      "27th": 5107,
      "results": 5108,
      "85": 5109,
      "##day": 5110,
      "mahal": 5111,
      "interview": 5112,
      "which": 5113,
      "ky": 5114,
      "people": 5115,
      "##®": 5116,
      "holt": 5117,
      "1917": 5118,
      "ahmad": 5119,
      "ab": 5120,
      "britney": 5121,
      "chin": 5122,
      "ares": 5123,
      "ᅮ": 5124,
      "##wr": 5125,
      "combat": 5126,
      "trinity": 5127,
      "hen": 5128,
      "renovation": 5129,
      "unexpected": 5130,
      "saturday": 5131,
      "recycled": 5132,
      "fray": 5133,
      "##ical": 5134,
      "##ip": 5135,
      "coli": 5136,
      "vessel": 5137,
      "®": 5138,
      "distribution": 5139,
      "##aru": 5140,
      "lasts": 5141,
      "responding": 5142,
      "331": 5143,
      "approx": 5144,
      "chaired": 5145,
      "##naud": 5146,
      "wanting": 5147,
      "madeleine": 5148,
      "managerial": 5149,
      "everett": 5150,
      "##onale": 5151,
      "570": 5152,
      "tones": 5153,
      "through": 5154,
      "wildlife": 5155,
      "360": 5156,
      "good": 5157,
      "1705": 5158,
      "##in": 5159,
      "tie": 5160,
      "94": 5161,
      "physically": 5162,
      "##mation": 5163,
      "yd": 5164,
      "##fm": 5165,
      "territorial": 5166,
      "wheel": 5167,
      "newspaper": 5168,
      "titus": 5169,
      "tong": 5170,
      "persona": 5171,
      "brighton": 5172,
      "photos": 5173,
      "##प": 5174,
      "##dah": 5175,
      "##ott": 5176,
      "##ear": 5177,
      "starting": 5178,
      "դ": 5179,
      "warning": 5180,
      "sanchez": 5181,
      "letter": 5182,
      "kansas": 5183,
      "##lled": 5184,
      "ך": 5185,
      "semester": 5186,
      "jaipur": 5187,
      "attended": 5188,
      "prince": 5189,
      "fatima": 5190,
      "liquid": 5191,
      "cause": 5192,
      "##nob": 5193,
      "microsoft": 5194,
      "mohammad": 5195,
      "declared": 5196,
      "clothing": 5197,
      "##stone": 5198,
      "##tto": 5199,
      "დ": 5200,
      "356": 5201,
      "hypothesis": 5202,
      "##oping": 5203,
      "caine": 5204,
      "nov": 5205,
      "amazing": 5206,
      "receptor": 5207,
      "tristan": 5208,
      "##lland": 5209,
      "dod": 5210,
      "extraordinary": 5211,
      "junior": 5212,
      "navigate": 5213,
      "insurance": 5214,
      "cullen": 5215,
      "explicit": 5216,
      "##mes": 5217,
      "ල": 5218,
      "##lay": 5219,
      "dei": 5220,
      "##т": 5221,
      "negro": 5222,
      "337": 5223,
      "1930": 5224,
      "##田": 5225,
      "bane": 5226,
      "1934": 5227,
      "##walk": 5228,
      "auditory": 5229,
      "rail": 5230,
      "decent": 5231,
      "bhp": 5232,
      "##mber": 5233,
      "1635": 5234,
      "lucky": 5235,
      "affair": 5236,
      "burr": 5237,
      "health": 5238,
      "products": 5239,
      "nearby": 5240,
      "breakout": 5241,
      "322": 5242,
      "encouraging": 5243,
      "plans": 5244,
      "##陽": 5245,
      "raul": 5246,
      "vega": 5247,
      "mk": 5248,
      "क": 5249,
      "france": 5250,
      "##osta": 5251,
      "##des": 5252,
      "##ings": 5253,
      "artificial": 5254,
      "##holders": 5255,
      "wider": 5256,
      "handel": 5257,
      "screen": 5258,
      "innovation": 5259,
      "cao": 5260,
      "andreas": 5261,
      "pairs": 5262,
      "mach": 5263,
      "madeira": 5264,
      "stems": 5265,
      "doin": 5266,
      "ceremony": 5267,
      "complete": 5268,
      "arab": 5269,
      "##子": 5270,
      "parody": 5271,
      "aspect": 5272,
      "##場": 5273,
      "blanco": 5274,
      "cousins": 5275,
      "##eri": 5276,
      "##sari": 5277,
      "##風": 5278,
      "##vat": 5279,
      "##anal": 5280,
      "##man": 5281,
      "bitten": 5282,
      "##թ": 5283,
      "desired": 5284,
      "submit": 5285,
      "##any": 5286,
      "moderate": 5287,
      "ب": 5288,
      "490": 5289,
      "##pf": 5290,
      "retro": 5291,
      "##av": 5292,
      "##for": 5293,
      "messed": 5294,
      "##building": 5295,
      "courthouse": 5296,
      "present": 5297,
      "divorced": 5298,
      "defence": 5299,
      "distant": 5300,
      "stud": 5301,
      "y": 5302,
      "##hausen": 5303,
      "elsewhere": 5304,
      "capacity": 5305,
      "secrets": 5306,
      "aside": 5307,
      "headache": 5308,
      "rhythm": 5309,
      "sports": 5310,
      "cores": 5311,
      "##hn": 5312,
      "checkpoint": 5313,
      "##yst": 5314,
      "##ssee": 5315,
      "practices": 5316,
      "cathy": 5317,
      "reasons": 5318,
      "porto": 5319,
      "might": 5320,
      "##kko": 5321,
      "vase": 5322,
      "nicole": 5323,
      "##rbin": 5324,
      "myrtle": 5325,
      "##zcz": 5326,
      "dove": 5327,
      "negotiating": 5328,
      "##hs": 5329,
      "yves": 5330,
      "valve": 5331,
      "##ridge": 5332,
      "##ই": 5333,
      "##ᅪ": 5334,
      "stade": 5335,
      "##ₓ": 5336,
      "security": 5337,
      "##mony": 5338,
      "nation": 5339,
      "other": 5340,
      "ᆫ": 5341,
      "##vision": 5342,
      "al": 5343,
      "yemen": 5344,
      "##aster": 5345,
      "leverage": 5346,
      "##nami": 5347,
      "knit": 5348,
      "hs": 5349,
      "ₙ": 5350,
      "280": 5351,
      "preserved": 5352,
      "marjorie": 5353,
      "sino": 5354,
      "##tort": 5355,
      "roasted": 5356,
      "sf": 5357,
      "sequencing": 5358,
      "workshop": 5359,
      "total": 5360,
      "assets": 5361,
      "sabah": 5362,
      "cyrus": 5363,
      "ʑ": 5364,
      "ং": 5365,
      "##ecin": 5366,
      "mba": 5367,
      "bela": 5368,
      "appreciated": 5369,
      "jose": 5370,
      "##ek": 5371,
      "##thus": 5372,
      "##icide": 5373,
      "ganga": 5374,
      "trevor": 5375,
      "₤": 5376,
      "##sdale": 5377,
      "controversial": 5378,
      "##久": 5379,
      "##pw": 5380,
      "hadley": 5381,
      "政": 5382,
      "##bn": 5383,
      "##龍": 5384,
      "accord": 5385,
      "coincidence": 5386,
      "ね": 5387,
      "organising": 5388,
      "ヘ": 5389,
      "xml": 5390,
      "advice": 5391,
      "il": 5392,
      "examined": 5393,
      "tomorrow": 5394,
      "ᵉ": 5395,
      "##esh": 5396,
      "st": 5397,
      "usl": 5398,
      "##ux": 5399,
      "##ito": 5400,
      "白": 5401,
      "centers": 5402,
      "drake": 5403,
      "guessing": 5404,
      "virtually": 5405,
      "robbie": 5406,
      "##gny": 5407,
      "pursue": 5408,
      "attends": 5409,
      "ourselves": 5410,
      "##rda": 5411,
      "negotiations": 5412,
      "##thic": 5413,
      "embroidered": 5414,
      "applications": 5415,
      "##cion": 5416,
      "bethany": 5417,
      "rb": 5418,
      "deposited": 5419,
      "occupational": 5420,
      "##pse": 5421,
      "salamanca": 5422,
      "transformation": 5423,
      "rochelle": 5424,
      "inactive": 5425,
      "freezing": 5426,
      "ligue": 5427,
      "million": 5428,
      "amount": 5429,
      "cop": 5430,
      "analyst": 5431,
      "amsterdam": 5432,
      "cube": 5433,
      "targets": 5434,
      "1651": 5435,
      "##night": 5436,
      "##rs": 5437,
      "##point": 5438,
      "sources": 5439,
      "##ischen": 5440,
      "##tino": 5441,
      "sm": 5442,
      "##roid": 5443,
      "evangelist": 5444,
      "scholarship": 5445,
      "忄": 5446,
      "##oris": 5447,
      "1807": 5448,
      "donnie": 5449,
      "failing": 5450,
      "accordance": 5451,
      "smaller": 5452,
      "salvage": 5453,
      "complain": 5454,
      "vince": 5455,
      "ode": 5456,
      "mastery": 5457,
      "botanic": 5458,
      "##さ": 5459,
      "##tea": 5460,
      "fell": 5461,
      "wardrobe": 5462,
      "lineup": 5463,
      "##ther": 5464,
      "youtube": 5465,
      "##meyer": 5466,
      "landing": 5467,
      "bangladesh": 5468,
      "correction": 5469,
      "suspended": 5470,
      "kelly": 5471,
      "##pha": 5472,
      "##sner": 5473,
      "locating": 5474,
      "faux": 5475,
      "stab": 5476,
      "##eem": 5477,
      "downloadable": 5478,
      "maine": 5479,
      "conditional": 5480,
      "entry": 5481,
      "##ulu": 5482,
      "wiped": 5483,
      "##智": 5484,
      "hills": 5485,
      "##dae": 5486,
      "##ress": 5487,
      "sorting": 5488,
      "nile": 5489,
      "questioning": 5490,
      "##eller": 5491,
      "##lves": 5492,
      "blanca": 5493,
      "walking": 5494,
      "##ctions": 5495,
      "beloved": 5496,
      "legitimacy": 5497,
      "不": 5498,
      "buzz": 5499,
      "lan": 5500,
      "reflected": 5501,
      "##ines": 5502,
      "academy": 5503,
      "our": 5504,
      "surprising": 5505,
      "emma": 5506,
      "##lein": 5507,
      "congratulations": 5508,
      "##torium": 5509,
      "ruining": 5510,
      "72": 5511,
      "stamp": 5512,
      "ɾ": 5513,
      "repository": 5514,
      "take": 5515,
      "speaker": 5516,
      "expenditures": 5517,
      "owes": 5518,
      "giacomo": 5519,
      "##史": 5520,
      "sought": 5521,
      "exports": 5522,
      "carried": 5523,
      "##त": 5524,
      "easter": 5525,
      "luis": 5526,
      "1811": 5527,
      "episodes": 5528,
      "##dav": 5529,
      "291": 5530,
      "व": 5531,
      "grew": 5532,
      "shadow": 5533,
      "convert": 5534,
      "##dun": 5535,
      "##fed": 5536,
      "trieste": 5537,
      "vacuum": 5538,
      "embassy": 5539,
      "passage": 5540,
      "learning": 5541,
      "sounding": 5542,
      "##do": 5543,
      "implemented": 5544,
      "engage": 5545,
      "transportation": 5546,
      "##nan": 5547,
      "intelligence": 5548,
      "appropriations": 5549,
      "trafficking": 5550,
      "kay": 5551,
      "specific": 5552,
      "##pes": 5553,
      "│": 5554,
      "##yah": 5555,
      "farms": 5556,
      "meyer": 5557,
      "catching": 5558,
      "paying": 5559,
      "investigation": 5560,
      "##ima": 5561,
      "costs": 5562,
      "journal": 5563,
      "manga": 5564,
      "hardy": 5565,
      "survey": 5566,
      "##ト": 5567,
      "philipp": 5568,
      "accelerate": 5569,
      "attack": 5570,
      "drain": 5571,
      "##ɡ": 5572,
      "##insky": 5573,
      "execution": 5574,
      "baroque": 5575,
      "resin": 5576,
      "##↦": 5577,
      "vendors": 5578,
      "party": 5579,
      "alpine": 5580,
      "conform": 5581,
      "borrow": 5582,
      "legally": 5583,
      "oceanic": 5584,
      "306": 5585,
      "##kura": 5586,
      "millennia": 5587,
      "greece": 5588,
      "eel": 5589,
      "##koto": 5590,
      "##rno": 5591,
      "choosing": 5592,
      "olympia": 5593,
      "400": 5594,
      "century": 5595,
      "##raße": 5596,
      "act": 5597,
      "mixes": 5598,
      "situations": 5599,
      "keys": 5600,
      "##%": 5601,
      "264": 5602,
      "##ston": 5603,
      "##psy": 5604,
      "behalf": 5605,
      "digit": 5606,
      "genetics": 5607,
      "##lette": 5608,
      "novel": 5609,
      "##ties": 5610,
      "##ised": 5611,
      "dusk": 5612,
      "hurry": 5613,
      "howell": 5614,
      "rural": 5615,
      "kevin": 5616,
      "easton": 5617,
      "##eres": 5618,
      "##pon": 5619,
      "plume": 5620,
      "drinking": 5621,
      "##dents": 5622,
      "も": 5623,
      "burn": 5624,
      "anticipated": 5625,
      "hubert": 5626,
      "nuevo": 5627,
      "indirect": 5628,
      "sinn": 5629,
      "dye": 5630,
      "##rot": 5631,
      "##belle": 5632,
      "##sund": 5633,
      "1773": 5634,
      "##lei": 5635,
      "##皇": 5636,
      "##sfield": 5637,
      "₆": 5638,
      "pairing": 5639,
      "built": 5640,
      "##one": 5641,
      "choreography": 5642,
      "worth": 5643,
      "caring": 5644,
      "religion": 5645,
      "##hia": 5646,
      "##sov": 5647,
      "pray": 5648,
      "##ந": 5649,
      "director": 5650,
      "iss": 5651,
      "lewis": 5652,
      "veterans": 5653,
      "chat": 5654,
      "246": 5655,
      "ட": 5656,
      "healthy": 5657,
      "frequency": 5658,
      "arms": 5659,
      "##dicate": 5660,
      "1640": 5661,
      "colour": 5662,
      "combination": 5663,
      "corbin": 5664,
      "team": 5665,
      "##tao": 5666,
      "deployed": 5667,
      "reservoir": 5668,
      "194": 5669,
      "nape": 5670,
      "##₈": 5671,
      "##ror": 5672,
      "500": 5673,
      "##some": 5674,
      "##codes": 5675,
      "001": 5676,
      "##mx": 5677,
      "sb": 5678,
      "simulate": 5679,
      "settlement": 5680,
      "##lo": 5681,
      "rifles": 5682,
      "##₹": 5683,
      "##ammed": 5684,
      "routes": 5685,
      "lambert": 5686,
      "##lia": 5687,
      "##metry": 5688,
      "doha": 5689,
      "merchant": 5690,
      "handling": 5691,
      "rape": 5692,
      "admissions": 5693,
      "##jima": 5694,
      "distance": 5695,
      "##bruck": 5696,
      "##×": 5697,
      "online": 5698,
      "juno": 5699,
      "toilet": 5700,
      "##izer": 5701,
      "##dev": 5702,
      "memoir": 5703,
      "rejection": 5704,
      "##dating": 5705,
      "60": 5706,
      "##北": 5707,
      "⇄": 5708,
      "mojo": 5709,
      "##yt": 5710,
      "average": 5711,
      "##ashi": 5712,
      "inscription": 5713,
      "##rdon": 5714,
      "digitally": 5715,
      "grin": 5716,
      "ة": 5717,
      "dave": 5718,
      "軍": 5719,
      "mahmoud": 5720,
      "yeah": 5721,
      "##les": 5722,
      "apollo": 5723,
      "sugar": 5724,
      "discoveries": 5725,
      "##page": 5726,
      "##≥": 5727,
      "191": 5728,
      "h": 5729,
      "acc": 5730,
      "##tative": 5731,
      "ari": 5732,
      "believes": 5733,
      "mont": 5734,
      "titles": 5735,
      "nagar": 5736,
      "##ⱼ": 5737,
      "mahmud": 5738,
      "unsure": 5739,
      "##iah": 5740,
      "##dion": 5741,
      "leaked": 5742,
      "##com": 5743,
      "##cend": 5744,
      "yard": 5745,
      "##sum": 5746,
      "ত": 5747,
      "cellar": 5748,
      "correspondent": 5749,
      "##uron": 5750,
      "##wat": 5751,
      "##ħ": 5752,
      "##eville": 5753,
      "##ᵥ": 5754,
      "begin": 5755,
      "て": 5756,
      "##mate": 5757,
      "protective": 5758,
      "1732": 5759,
      "substantive": 5760,
      "umm": 5761,
      "##0": 5762,
      "pleased": 5763,
      "strategy": 5764,
      "clarify": 5765,
      "notable": 5766,
      "##upt": 5767,
      "##rk": 5768,
      "victim": 5769,
      "annette": 5770,
      "wien": 5771,
      "talked": 5772,
      "reviewed": 5773,
      "winchester": 5774,
      "gal": 5775,
      "ध": 5776,
      "multiple": 5777,
      "barn": 5778,
      "caroline": 5779,
      "##良": 5780,
      "iranian": 5781,
      "cites": 5782,
      "##ка": 5783,
      "cn": 5784,
      "magnetic": 5785,
      "ein": 5786,
      "##zuka": 5787,
      "sanctuary": 5788,
      "upon": 5789,
      "##و": 5790,
      "urging": 5791,
      "origins": 5792,
      "thirty": 5793,
      "heavy": 5794,
      "birthday": 5795,
      "##mura": 5796,
      "twin": 5797,
      "goth": 5798,
      "approaches": 5799,
      "recipient": 5800,
      "jo": 5801,
      "oversaw": 5802,
      "principle": 5803,
      "##rked": 5804,
      "##ont": 5805,
      "bud": 5806,
      "ju": 5807,
      "##郡": 5808,
      "deeper": 5809,
      "##ʑ": 5810,
      "medical": 5811,
      "##bon": 5812,
      "57": 5813,
      "1932": 5814,
      "bae": 5815,
      "##dian": 5816,
      "##itan": 5817,
      "forge": 5818,
      "aids": 5819,
      "##orno": 5820,
      "belonging": 5821,
      "井": 5822,
      "straightforward": 5823,
      "addresses": 5824,
      "##amina": 5825,
      "cheyenne": 5826,
      "brooke": 5827,
      "##rco": 5828,
      "doubt": 5829,
      "advantage": 5830,
      "##pc": 5831,
      "##^": 5832,
      "##ara": 5833,
      "##erate": 5834,
      "##rated": 5835,
      "##bach": 5836,
      "voyage": 5837,
      "decree": 5838,
      "foam": 5839,
      "fits": 5840,
      "nonprofit": 5841,
      "brings": 5842,
      "野": 5843,
      "##下": 5844,
      "haze": 5845,
      "##lma": 5846,
      "rees": 5847,
      "comparison": 5848,
      "##ment": 5849,
      "1658": 5850,
      "onward": 5851,
      "##ต": 5852,
      "295": 5853,
      "incident": 5854,
      "palm": 5855,
      "zach": 5856,
      "threatened": 5857,
      "risen": 5858,
      "##ango": 5859,
      "indicating": 5860,
      "artwork": 5861,
      "multinational": 5862,
      "lear": 5863,
      "##oslav": 5864,
      "##enko": 5865,
      "##ு": 5866,
      "northern": 5867,
      "##hong": 5868,
      "fourteen": 5869,
      "##suit": 5870,
      "altar": 5871,
      "commodities": 5872,
      "##bf": 5873,
      "portugal": 5874,
      "herbs": 5875,
      "skate": 5876,
      "portland": 5877,
      "huh": 5878,
      "apt": 5879,
      "goods": 5880,
      "approval": 5881,
      "nearest": 5882,
      "endless": 5883,
      "dependency": 5884,
      "spontaneous": 5885,
      "ferry": 5886,
      "##note": 5887,
      "referencing": 5888,
      "##fire": 5889,
      "##ations": 5890,
      "collaborate": 5891,
      "##rued": 5892,
      "improves": 5893,
      "ᄆ": 5894,
      "##inus": 5895,
      "##tf": 5896,
      "hug": 5897,
      "##oz": 5898,
      "jill": 5899,
      "##lick": 5900,
      "wong": 5901,
      "cheltenham": 5902,
      "primary": 5903,
      "regards": 5904,
      "##tius": 5905,
      "lulu": 5906,
      "primarily": 5907,
      "##felt": 5908,
      "rave": 5909,
      "##¢": 5910,
      "##間": 5911,
      "transformed": 5912,
      "supervision": 5913,
      "pools": 5914,
      "256": 5915,
      "##rned": 5916,
      "##ᄇ": 5917,
      "blame": 5918,
      "expectations": 5919,
      "codex": 5920,
      "sharply": 5921,
      "identifies": 5922,
      "##2": 5923,
      "##cock": 5924,
      "84": 5925,
      "garage": 5926,
      "œ": 5927,
      "split": 5928,
      "##ʰ": 5929,
      "ely": 5930,
      "##भ": 5931,
      "##nn": 5932,
      "sparta": 5933,
      "pointing": 5934,
      "song": 5935,
      "mineral": 5936,
      "##za": 5937,
      "##/": 5938,
      "experimental": 5939,
      "strings": 5940,
      "modest": 5941,
      "ding": 5942,
      "郎": 5943,
      "##tlement": 5944,
      "##makers": 5945,
      "marta": 5946,
      "fabrics": 5947,
      "ˢ": 5948,
      "1a": 5949,
      "celia": 5950,
      "2500": 5951,
      "##ject": 5952,
      "##ys": 5953,
      "tablet": 5954,
      "holder": 5955,
      "chronicle": 5956,
      "sousa": 5957,
      "=": 5958,
      "citrus": 5959,
      "brendan": 5960,
      "##inium": 5961,
      "千": 5962,
      "piss": 5963,
      "sewing": 5964,
      "2009": 5965,
      "chichester": 5966,
      "##del": 5967,
      "richmond": 5968,
      "wants": 5969,
      "elliott": 5970,
      "alter": 5971,
      "kettle": 5972,
      "ashok": 5973,
      "##lto": 5974,
      "niece": 5975,
      "##uchi": 5976,
      "mig": 5977,
      "##書": 5978,
      "grille": 5979,
      "rosemary": 5980,
      "flooded": 5981,
      "spectral": 5982,
      "emotion": 5983,
      "1682": 5984,
      "isolation": 5985,
      "113": 5986,
      "teatro": 5987,
      "fred": 5988,
      "##ɣ": 5989,
      "##play": 5990,
      "325": 5991,
      "tanya": 5992,
      "charging": 5993,
      "貝": 5994,
      "##uru": 5995,
      "gravel": 5996,
      "##tson": 5997,
      "ʸ": 5998,
      "hatch": 5999,
      "dart": 6000,
      "##shi": 6001,
      "##rew": 6002,
      "examines": 6003,
      "closed": 6004,
      "rubin": 6005,
      "##las": 6006,
      "inaccurate": 6007,
      "witness": 6008,
      "##uze": 6009,
      "##hum": 6010,
      "receptionist": 6011,
      "原": 6012,
      "##ted": 6013,
      "gavin": 6014,
      "diffusion": 6015,
      "serum": 6016,
      "colombian": 6017,
      "##lands": 6018,
      "##ole": 6019,
      "threat": 6020,
      "improve": 6021,
      "arjun": 6022,
      "vera": 6023,
      "##gf": 6024,
      "allie": 6025,
      "##镇": 6026,
      "badly": 6027,
      "uh": 6028,
      "##poulos": 6029,
      "realism": 6030,
      "jared": 6031,
      "medici": 6032,
      "taxi": 6033,
      "##相": 6034,
      "requirement": 6035,
      "##lton": 6036,
      "bone": 6037,
      "welfare": 6038,
      "or": 6039,
      "vents": 6040,
      "##م": 6041,
      "colton": 6042,
      "1827": 6043,
      "cuff": 6044,
      "##loe": 6045,
      "##kk": 6046,
      "dive": 6047,
      "stops": 6048,
      "##may": 6049,
      "developers": 6050,
      "##avio": 6051,
      "supporter": 6052,
      "ぬ": 6053,
      "perceptions": 6054,
      "##bit": 6055,
      "interest": 6056,
      "spruce": 6057,
      "##yar": 6058,
      "hire": 6059,
      "##ל": 6060,
      "lim": 6061,
      "ರ": 6062,
      "##lling": 6063,
      "##春": 6064,
      "##ices": 6065,
      "ahead": 6066,
      "大": 6067,
      "##tania": 6068,
      "230": 6069,
      "##pura": 6070,
      "##ril": 6071,
      "⁻": 6072,
      "opens": 6073,
      "288": 6074,
      "1945": 6075,
      "substitute": 6076,
      "notation": 6077,
      "orchestra": 6078,
      "##rier": 6079,
      "thinking": 6080,
      "08": 6081,
      "liv": 6082,
      "irregular": 6083,
      "rod": 6084,
      "##onus": 6085,
      "classification": 6086,
      "mora": 6087,
      "accepted": 6088,
      "dealt": 6089,
      "##hly": 6090,
      "countryside": 6091,
      "fest": 6092,
      "##ʲ": 6093,
      "309": 6094,
      "820": 6095,
      "major": 6096,
      "salaries": 6097,
      "overlap": 6098,
      "doc": 6099,
      "bonnet": 6100,
      "cheryl": 6101,
      "genie": 6102,
      "such": 6103,
      "disability": 6104,
      "involve": 6105,
      "adviser": 6106,
      "volcano": 6107,
      "ci": 6108,
      "temps": 6109,
      "antagonist": 6110,
      "cabinet": 6111,
      "##dden": 6112,
      "throughout": 6113,
      "##nas": 6114,
      "christy": 6115,
      "##tsu": 6116,
      "kris": 6117,
      "michigan": 6118,
      "##bility": 6119,
      "documentary": 6120,
      "guinea": 6121,
      "event": 6122,
      "changes": 6123,
      "truth": 6124,
      "ensure": 6125,
      "coaching": 6126,
      "turner": 6127,
      "next": 6128,
      "##jet": 6129,
      "56": 6130,
      "comb": 6131,
      "₎": 6132,
      "##cio": 6133,
      "soft": 6134,
      "barrier": 6135,
      "passed": 6136,
      "kn": 6137,
      "reef": 6138,
      "otto": 6139,
      "tire": 6140,
      "1963": 6141,
      "arrival": 6142,
      "relationships": 6143,
      "##ware": 6144,
      "outlined": 6145,
      "gunn": 6146,
      "paul": 6147,
      "bianca": 6148,
      "exit": 6149,
      "sunderland": 6150,
      "branded": 6151,
      "wilbur": 6152,
      "##gu": 6153,
      "programmes": 6154,
      "helping": 6155,
      "uniform": 6156,
      "##ß": 6157,
      "ᵀ": 6158,
      "alam": 6159,
      "spp": 6160,
      "##lase": 6161,
      "##iad": 6162,
      "tasting": 6163,
      "literary": 6164,
      "pulls": 6165,
      "address": 6166,
      "##ologies": 6167,
      "successive": 6168,
      "##fa": 6169,
      "mort": 6170,
      "compromise": 6171,
      "323": 6172,
      "lavender": 6173,
      "##well": 6174,
      "draws": 6175,
      "##etto": 6176,
      "bautista": 6177,
      "##華": 6178,
      "mumbai": 6179,
      "crook": 6180,
      "terence": 6181,
      "##anor": 6182,
      "prominent": 6183,
      "wages": 6184,
      "audition": 6185,
      "##64": 6186,
      "##unes": 6187,
      "chapter": 6188,
      "##kawa": 6189,
      "##yd": 6190,
      "##nc": 6191,
      "nuts": 6192,
      "chest": 6193,
      "boys": 6194,
      "resulted": 6195,
      "##hm": 6196,
      "sergio": 6197,
      "forcing": 6198,
      "slab": 6199,
      "taylor": 6200,
      "mission": 6201,
      "##tura": 6202,
      "##gee": 6203,
      "pm": 6204,
      "sediment": 6205,
      "continents": 6206,
      "advancing": 6207,
      "tags": 6208,
      "shares": 6209,
      "##eit": 6210,
      "tko": 6211,
      "bono": 6212,
      "##gne": 6213,
      "correspond": 6214,
      "accountability": 6215,
      "paint": 6216,
      "edison": 6217,
      "polar": 6218,
      "##ares": 6219,
      "monitored": 6220,
      "##ن": 6221,
      "taluka": 6222,
      "##cape": 6223,
      "##xx": 6224,
      "30th": 6225,
      "confusion": 6226,
      "papers": 6227,
      "##bbe": 6228,
      "euro": 6229,
      "contribute": 6230,
      "ohio": 6231,
      "##ok": 6232,
      "pension": 6233,
      "♣": 6234,
      "cloud": 6235,
      "bits": 6236,
      "applies": 6237,
      "applying": 6238,
      "∇": 6239,
      "progression": 6240,
      "tom": 6241,
      "97": 6242,
      "##nsis": 6243,
      "alicia": 6244,
      "##ever": 6245,
      "so": 6246,
      "buy": 6247,
      "sal": 6248,
      "namely": 6249,
      "enable": 6250,
      "##ni": 6251,
      "jennie": 6252,
      "engineering": 6253,
      "renaissance": 6254,
      "crashing": 6255,
      "allowing": 6256,
      "##garh": 6257,
      "^": 6258,
      "##uf": 6259,
      "onboard": 6260,
      "pry": 6261,
      "exchanges": 6262,
      "##awan": 6263,
      "curb": 6264,
      "##rator": 6265,
      "青": 6266,
      "277": 6267,
      "##wig": 6268,
      "germany": 6269,
      "##eld": 6270,
      "##bine": 6271,
      "##ˤ": 6272,
      "offered": 6273,
      "outline": 6274,
      "##ctic": 6275,
      "##obe": 6276,
      "coordinates": 6277,
      "added": 6278,
      "##ology": 6279,
      "##ב": 6280,
      "bet": 6281,
      "##ense": 6282,
      "owned": 6283,
      "flawless": 6284,
      "sasha": 6285,
      "##ʒ": 6286,
      "##rgeon": 6287,
      "come": 6288,
      "opening": 6289,
      "investment": 6290,
      "surpassing": 6291,
      "album": 6292,
      "mode": 6293,
      "suggests": 6294,
      "rebuilding": 6295,
      "##keeping": 6296,
      "1943": 6297,
      "##orough": 6298,
      "increasing": 6299,
      "nicolas": 6300,
      "愛": 6301,
      "reminder": 6302,
      "##glia": 6303,
      "placing": 6304,
      "simpson": 6305,
      "##nting": 6306,
      "dharma": 6307,
      "email": 6308,
      "myra": 6309,
      "spots": 6310,
      "acoustic": 6311,
      "##sat": 6312,
      "meadow": 6313,
      "petite": 6314,
      "francis": 6315,
      "##ent": 6316,
      "logistics": 6317,
      "shay": 6318,
      "ships": 6319,
      "##ule": 6320,
      "imperative": 6321,
      "##uk": 6322,
      "outstanding": 6323,
      "newell": 6324,
      "islamic": 6325,
      "jaw": 6326,
      "arguing": 6327,
      "amendments": 6328,
      "dropped": 6329,
      "pepper": 6330,
      "##lts": 6331,
      "colorado": 6332,
      "presley": 6333,
      "##ray": 6334,
      "futuristic": 6335,
      "harley": 6336,
      "discussed": 6337,
      "##ट": 6338,
      "##r": 6339,
      "2nd": 6340,
      "leaving": 6341,
      "alley": 6342,
      "##gen": 6343,
      "govt": 6344,
      "1900": 6345,
      "philippe": 6346,
      "urban": 6347,
      "dana": 6348,
      "##old": 6349,
      "|": 6350,
      "signature": 6351,
      "hyderabad": 6352,
      "世": 6353,
      "unlimited": 6354,
      "throwing": 6355,
      "antigua": 6356,
      "cryptic": 6357,
      "commission": 6358,
      "genealogy": 6359,
      "damaged": 6360,
      "##helm": 6361,
      "yelling": 6362,
      "attorney": 6363,
      "##dic": 6364,
      "lungs": 6365,
      "exclusion": 6366,
      "mushroom": 6367,
      "loyal": 6368,
      "止": 6369,
      "bk": 6370,
      "delighted": 6371,
      "retrospective": 6372,
      "fairly": 6373,
      "finnish": 6374,
      "neighbourhood": 6375,
      "notebook": 6376,
      "vinnie": 6377,
      "hackett": 6378,
      "##roud": 6379,
      "installations": 6380,
      "art": 6381,
      "protagonist": 6382,
      "familiar": 6383,
      "##atz": 6384,
      "facilities": 6385,
      "herr": 6386,
      "aluminium": 6387,
      "fired": 6388,
      "1906": 6389,
      "##rites": 6390,
      "##ria": 6391,
      "清": 6392,
      "movements": 6393,
      "jefferson": 6394,
      "1812": 6395,
      "xii": 6396,
      "《": 6397,
      "henderson": 6398,
      "banner": 6399,
      "##bara": 6400,
      "palmer": 6401,
      "##valent": 6402,
      "uno": 6403,
      "proves": 6404,
      "##eil": 6405,
      "estonia": 6406,
      "points": 6407,
      "ur": 6408,
      "##mill": 6409,
      "implicit": 6410,
      "sunlight": 6411,
      "among": 6412,
      "demo": 6413,
      "darryl": 6414,
      "achieving": 6415,
      "27": 6416,
      "helm": 6417,
      "affected": 6418,
      "##ill": 6419,
      "leicester": 6420,
      "persist": 6421,
      "complicated": 6422,
      "ₑ": 6423,
      "ᄎ": 6424,
      "workshops": 6425,
      "donations": 6426,
      "ransom": 6427,
      "chants": 6428,
      "beverage": 6429,
      "##18": 6430,
      "##run": 6431,
      "ending": 6432,
      "<": 6433,
      "interruption": 6434,
      "want": 6435,
      "##ry": 6436,
      "genevieve": 6437,
      "audi": 6438,
      "format": 6439,
      "##幸": 6440,
      "sarajevo": 6441,
      "agencies": 6442,
      "pulled": 6443,
      "184": 6444,
      "zane": 6445,
      "ե": 6446,
      "dc": 6447,
      "assurance": 6448,
      "produce": 6449,
      "1702": 6450,
      "demos": 6451,
      "concurrent": 6452,
      "##tha": 6453,
      "executive": 6454,
      "commemorative": 6455,
      "##ก": 6456,
      "##vos": 6457,
      "two": 6458,
      "generate": 6459,
      "oldham": 6460,
      "certainly": 6461,
      "consumer": 6462,
      "partially": 6463,
      "mohamed": 6464,
      "rolling": 6465,
      "andrei": 6466,
      "demonstrating": 6467,
      "##fast": 6468,
      "fails": 6469,
      "mayor": 6470,
      "corn": 6471,
      "minded": 6472,
      "names": 6473,
      "##№": 6474,
      "oath": 6475,
      "・": 6476,
      "scout": 6477,
      "plot": 6478,
      "##vot": 6479,
      "nine": 6480,
      "captured": 6481,
      "abandon": 6482,
      "primera": 6483,
      "nguyen": 6484,
      "fey": 6485,
      "medications": 6486,
      "standards": 6487,
      "##gos": 6488,
      "pleasant": 6489,
      "isabelle": 6490,
      "##ama": 6491,
      "dialogue": 6492,
      "strain": 6493,
      "als": 6494,
      "adler": 6495,
      "##dner": 6496,
      "elias": 6497,
      "##坂": 6498,
      "encouraged": 6499,
      "##su": 6500,
      "disclosure": 6501,
      "role": 6502,
      "trails": 6503,
      "scheduling": 6504,
      "1854": 6505,
      "counterpart": 6506,
      "##事": 6507,
      "athena": 6508,
      "##sc": 6509,
      "‿": 6510,
      "established": 6511,
      "mention": 6512,
      "afl": 6513,
      "settle": 6514,
      "jess": 6515,
      "keller": 6516,
      "arya": 6517,
      "tells": 6518,
      "##ᵉ": 6519,
      "honourable": 6520,
      "150": 6521,
      "##ection": 6522,
      "hard": 6523,
      "21st": 6524,
      "observatory": 6525,
      "stew": 6526,
      "compelling": 6527,
      "magna": 6528,
      "chemistry": 6529,
      "##udence": 6530,
      "##─": 6531,
      "stump": 6532,
      "websites": 6533,
      "phrases": 6534,
      "filing": 6535,
      "##finder": 6536,
      "##cci": 6537,
      "indications": 6538,
      "arabia": 6539,
      "obtaining": 6540,
      "ops": 6541,
      "allison": 6542,
      "॥": 6543,
      "##phile": 6544,
      "nsa": 6545,
      "heroes": 6546,
      "encouragement": 6547,
      "##wei": 6548,
      "metz": 6549,
      "fabio": 6550,
      "##tters": 6551,
      "##crest": 6552,
      "regard": 6553,
      "ernst": 6554,
      "promote": 6555,
      "##och": 6556,
      "cpi": 6557,
      "antoine": 6558,
      "##kumar": 6559,
      "monica": 6560,
      "##lass": 6561,
      "verona": 6562,
      "visits": 6563,
      "##こ": 6564,
      "visiting": 6565,
      "similarly": 6566,
      "ill": 6567,
      "delegate": 6568,
      "##amo": 6569,
      "alive": 6570,
      "##no": 6571,
      "kazan": 6572,
      "containment": 6573,
      "free": 6574,
      "ј": 6575,
      "##iec": 6576,
      "asha": 6577,
      "southern": 6578,
      "sato": 6579,
      "judah": 6580,
      "##oria": 6581,
      "eye": 6582,
      "cares": 6583,
      "brooklyn": 6584,
      "locals": 6585,
      "protege": 6586,
      "doors": 6587,
      "##kha": 6588,
      "wrong": 6589,
      "ก": 6590,
      "##ught": 6591,
      "forums": 6592,
      "同": 6593,
      "fixed": 6594,
      "anderson": 6595,
      "prohibited": 6596,
      "2016": 6597,
      "suffering": 6598,
      "world": 6599,
      "##ency": 6600,
      "belongings": 6601,
      "jonas": 6602,
      "beat": 6603,
      "##bria": 6604,
      "##ary": 6605,
      "stevens": 6606,
      "preparation": 6607,
      "legion": 6608,
      "##郎": 6609,
      "##80": 6610,
      "registry": 6611,
      "observe": 6612,
      "realistic": 6613,
      "ж": 6614,
      "evaluating": 6615,
      "##yx": 6616,
      "##rain": 6617,
      "##atal": 6618,
      "aa": 6619,
      "130": 6620,
      "##њ": 6621,
      "neighborhood": 6622,
      "##rill": 6623,
      "marginal": 6624,
      "jozef": 6625,
      "ballet": 6626,
      "##logue": 6627,
      "##lat": 6628,
      "1833": 6629,
      "ъ": 6630,
      "1925": 6631,
      "leo": 6632,
      "jerk": 6633,
      "##ak": 6634,
      "spark": 6635,
      "fragment": 6636,
      "shadows": 6637,
      "355": 6638,
      "yoo": 6639,
      "storytelling": 6640,
      "neo": 6641,
      "flora": 6642,
      "##kian": 6643,
      "kate": 6644,
      "wired": 6645,
      "##rson": 6646,
      "##block": 6647,
      "##wang": 6648,
      "apprentice": 6649,
      "licence": 6650,
      "fist": 6651,
      "anton": 6652,
      "commencement": 6653,
      "condom": 6654,
      "anchorage": 6655,
      "market": 6656,
      "আ": 6657,
      "224": 6658,
      "##ady": 6659,
      "train": 6660,
      "dario": 6661,
      "emissions": 6662,
      "##caster": 6663,
      "crafts": 6664,
      "dollar": 6665,
      "##udes": 6666,
      "1603": 6667,
      "e": 6668,
      "rust": 6669,
      "κ": 6670,
      "them": 6671,
      "programming": 6672,
      "aquarium": 6673,
      "durable": 6674,
      "evolution": 6675,
      "president": 6676,
      "##↑": 6677,
      "sob": 6678,
      "##ע": 6679,
      "ケ": 6680,
      "eddie": 6681,
      "cellular": 6682,
      "ak": 6683,
      "1866": 6684,
      "##gua": 6685,
      "anthony": 6686,
      "horace": 6687,
      "daisy": 6688,
      "328": 6689,
      "chocolate": 6690,
      "ð": 6691,
      "installment": 6692,
      "riot": 6693,
      "1795": 6694,
      "bam": 6695,
      "struggle": 6696,
      "bing": 6697,
      "nesting": 6698,
      "##shah": 6699,
      "mentioning": 6700,
      "lunar": 6701,
      "background": 6702,
      "writer": 6703,
      "happens": 6704,
      "intelligent": 6705,
      "wage": 6706,
      "general": 6707,
      "depth": 6708,
      "##cd": 6709,
      "pee": 6710,
      "packs": 6711,
      "immediate": 6712,
      "altitude": 6713,
      "##rok": 6714,
      "1888": 6715,
      "martinez": 6716,
      "until": 6717,
      "##ssar": 6718,
      "##ᵖ": 6719,
      "edited": 6720,
      "choi": 6721,
      "1612": 6722,
      "operational": 6723,
      "catalina": 6724,
      "faso": 6725,
      "blaze": 6726,
      "gum": 6727,
      "sitting": 6728,
      "focusing": 6729,
      "##test": 6730,
      "##cite": 6731,
      "incorporation": 6732,
      "reinforce": 6733,
      "##ல": 6734,
      "courier": 6735,
      "omar": 6736,
      "sim": 6737,
      "ョ": 6738,
      "##30": 6739,
      "philip": 6740,
      "##tua": 6741,
      "evie": 6742,
      "ɬ": 6743,
      "collects": 6744,
      "appeared": 6745,
      "##weiler": 6746,
      "##gman": 6747,
      "almond": 6748,
      "faye": 6749,
      "##aged": 6750,
      "খ": 6751,
      "##max": 6752,
      "##ge": 6753,
      "stella": 6754,
      "##mare": 6755,
      "graduation": 6756,
      "edmund": 6757,
      "abstract": 6758,
      "##cius": 6759,
      "月": 6760,
      "enjoyable": 6761,
      "indus": 6762,
      "urged": 6763,
      "##cp": 6764,
      "##ব": 6765,
      "nh": 6766,
      "⁴": 6767,
      "warned": 6768,
      "ezra": 6769,
      "nak": 6770,
      "consolidate": 6771,
      "whitney": 6772,
      "arizona": 6773,
      "baptiste": 6774,
      "1756": 6775,
      "##ici": 6776,
      "top": 6777,
      "pat": 6778,
      "easily": 6779,
      "reconstruction": 6780,
      "aged": 6781,
      "seating": 6782,
      "##idi": 6783,
      "bear": 6784,
      "plane": 6785,
      "1912": 6786,
      "floor": 6787,
      "##tory": 6788,
      "se": 6789,
      "##mma": 6790,
      "locations": 6791,
      "##yama": 6792,
      "odd": 6793,
      "tag": 6794,
      "pharmacy": 6795,
      "sar": 6796,
      "old": 6797,
      "##ovic": 6798,
      "richter": 6799,
      "customized": 6800,
      "november": 6801,
      "disposal": 6802,
      "disrupt": 6803,
      "##₩": 6804,
      "actor": 6805,
      "bruno": 6806,
      "donors": 6807,
      "treasure": 6808,
      "ि": 6809,
      "imp": 6810,
      "trees": 6811,
      "doctor": 6812,
      "##nsor": 6813,
      "mango": 6814,
      "tangible": 6815,
      "centered": 6816,
      "weapons": 6817,
      "varying": 6818,
      "acknowledge": 6819,
      "igor": 6820,
      "##ola": 6821,
      "##ham": 6822,
      "68": 6823,
      "voluntarily": 6824,
      "dump": 6825,
      "drill": 6826,
      "within": 6827,
      "wiener": 6828,
      "worried": 6829,
      "diversified": 6830,
      "existence": 6831,
      "emmett": 6832,
      "uncertainty": 6833,
      "diagnosed": 6834,
      "セ": 6835,
      "scream": 6836,
      "invitations": 6837,
      "garland": 6838,
      "##onte": 6839,
      "casper": 6840,
      "providers": 6841,
      "maia": 6842,
      "spill": 6843,
      "conception": 6844,
      "improving": 6845,
      "##ignon": 6846,
      "pseudo": 6847,
      "##town": 6848,
      "brook": 6849,
      "tai": 6850,
      "##weig": 6851,
      "any": 6852,
      "finch": 6853,
      "##tm": 6854,
      "vogel": 6855,
      "lorenzo": 6856,
      "1851": 6857,
      "ᄀ": 6858,
      "plaintiff": 6859,
      "ʻ": 6860,
      "yields": 6861,
      "##ђ": 6862,
      "en": 6863,
      "foe": 6864,
      "beans": 6865,
      "argues": 6866,
      "書": 6867,
      "shows": 6868,
      "replace": 6869,
      "technologies": 6870,
      "marshall": 6871,
      "belief": 6872,
      "illuminated": 6873,
      "ripple": 6874,
      "sincerely": 6875,
      "boards": 6876,
      "wayne": 6877,
      "##hl": 6878,
      "attache": 6879,
      "##mies": 6880,
      "##ス": 6881,
      "outreach": 6882,
      "293": 6883,
      "validity": 6884,
      "scenarios": 6885,
      "activation": 6886,
      "##qing": 6887,
      "##main": 6888,
      "##rium": 6889,
      "##igh": 6890,
      "##dell": 6891,
      "religious": 6892,
      "say": 6893,
      "governance": 6894,
      "1720": 6895,
      "tun": 6896,
      "prejudice": 6897,
      "##vers": 6898,
      "##van": 6899,
      "ala": 6900,
      "པ": 6901,
      "classroom": 6902,
      "沢": 6903,
      "غ": 6904,
      "haul": 6905,
      "##ig": 6906,
      "whispers": 6907,
      "adventures": 6908,
      "alias": 6909,
      "1813": 6910,
      "歌": 6911,
      "ireland": 6912,
      "ridge": 6913,
      "swing": 6914,
      "bloomberg": 6915,
      "non": 6916,
      "credit": 6917,
      "flame": 6918,
      "pv": 6919,
      "territory": 6920,
      "##real": 6921,
      "moor": 6922,
      "##uring": 6923,
      "氵": 6924,
      "christians": 6925,
      "meat": 6926,
      "##lating": 6927,
      "dorothy": 6928,
      "franz": 6929,
      "patches": 6930,
      "?": 6931,
      "ion": 6932,
      "##ari": 6933,
      "explorers": 6934,
      "hague": 6935,
      "mata": 6936,
      "reliability": 6937,
      "travis": 6938,
      "examples": 6939,
      "record": 6940,
      "delhi": 6941,
      "ritual": 6942,
      "##gate": 6943,
      "fee": 6944,
      "field": 6945,
      "edit": 6946,
      "david": 6947,
      "##hen": 6948,
      "gig": 6949,
      "outside": 6950,
      "1940": 6951,
      "##fin": 6952,
      "wyoming": 6953,
      "entitled": 6954,
      "budgets": 6955,
      "ʀ": 6956,
      "geological": 6957,
      "serena": 6958,
      "identities": 6959,
      "po": 6960,
      "subject": 6961,
      "claiming": 6962,
      "mbe": 6963,
      "beam": 6964,
      "parents": 6965,
      "breaking": 6966,
      "jeremy": 6967,
      "ciudad": 6968,
      "wagner": 6969,
      "solve": 6970,
      "mona": 6971,
      "readings": 6972,
      "ich": 6973,
      "tail": 6974,
      "##tute": 6975,
      "tel": 6976,
      "wipe": 6977,
      "calculated": 6978,
      "հ": 6979,
      "considerations": 6980,
      "fl": 6981,
      "traditions": 6982,
      "yong": 6983,
      "became": 6984,
      "cas": 6985,
      "##bow": 6986,
      "ᵒ": 6987,
      "accumulation": 6988,
      "tu": 6989,
      "stole": 6990,
      "ɴ": 6991,
      "##rdes": 6992,
      "##vial": 6993,
      "doyle": 6994,
      "##son": 6995,
      "chet": 6996,
      "criminal": 6997,
      "able": 6998,
      "jacob": 6999,
      "usage": 7000,
      "react": 7001,
      "costa": 7002,
      "##gart": 7003,
      "rand": 7004,
      "##•": 7005,
      "manifesto": 7006,
      "guru": 7007,
      "revealing": 7008,
      "talbot": 7009,
      "granada": 7010,
      "cary": 7011,
      "soc": 7012,
      "poland": 7013,
      "##uit": 7014,
      "goa": 7015,
      "plain": 7016,
      "disciplinary": 7017,
      "wheels": 7018,
      "obama": 7019,
      "2d": 7020,
      "craft": 7021,
      "participate": 7022,
      "##bank": 7023,
      "##ehan": 7024,
      "##ி": 7025,
      "payments": 7026,
      "text": 7027,
      "1774": 7028,
      "##宗": 7029,
      "activists": 7030,
      "上": 7031,
      "##ᅡ": 7032,
      "clears": 7033,
      "ன": 7034,
      "showing": 7035,
      "##itha": 7036,
      "lakes": 7037,
      "kayla": 7038,
      "##ffin": 7039,
      "##egan": 7040,
      "envelope": 7041,
      "rides": 7042,
      "pointed": 7043,
      "mines": 7044,
      "vanilla": 7045,
      "aromatic": 7046,
      "##ink": 7047,
      "walter": 7048,
      "incurred": 7049,
      "swap": 7050,
      "##are": 7051,
      "##ز": 7052,
      "relay": 7053,
      "oblast": 7054,
      "##ivar": 7055,
      "247": 7056,
      "##ᴬ": 7057,
      "facing": 7058,
      "sara": 7059,
      "##ja": 7060,
      "##ბ": 7061,
      "##isse": 7062,
      "usual": 7063,
      "♦": 7064,
      "phases": 7065,
      "upton": 7066,
      "occupied": 7067,
      "aligned": 7068,
      "##zman": 7069,
      "##nick": 7070,
      "inspected": 7071,
      "controlling": 7072,
      "polk": 7073,
      "smith": 7074,
      "90": 7075,
      "1796": 7076,
      "operations": 7077,
      "mans": 7078,
      "##llon": 7079,
      "##dier": 7080,
      "categories": 7081,
      "leaning": 7082,
      "fa": 7083,
      "µ": 7084,
      "theater": 7085,
      "shaun": 7086,
      "dorothea": 7087,
      "##lr": 7088,
      "ف": 7089,
      "sodium": 7090,
      "tung": 7091,
      "э": 7092,
      "deliver": 7093,
      "##'": 7094,
      "##յ": 7095,
      "willem": 7096,
      "##vale": 7097,
      "calgary": 7098,
      "ₐ": 7099,
      "##qa": 7100,
      "##finger": 7101,
      "sourced": 7102,
      "##elling": 7103,
      "extremely": 7104,
      "janeiro": 7105,
      "degree": 7106,
      "scroll": 7107,
      "registering": 7108,
      "##ery": 7109,
      "europeans": 7110,
      "##tric": 7111,
      "khz": 7112,
      "insect": 7113,
      "accompanying": 7114,
      "jung": 7115,
      "serra": 7116,
      "1821": 7117,
      "exchange": 7118,
      "##able": 7119,
      "彳": 7120,
      "filter": 7121,
      "zeke": 7122,
      "##ェ": 7123,
      "##vn": 7124,
      "thai": 7125,
      "##ope": 7126,
      "##ח": 7127,
      "seats": 7128,
      "quality": 7129,
      "rapid": 7130,
      "together": 7131,
      "fletcher": 7132,
      "mentoring": 7133,
      "##enity": 7134,
      "prose": 7135,
      "motive": 7136,
      "one": 7137,
      "residents": 7138,
      "inform": 7139,
      "gandhi": 7140,
      "##mu": 7141,
      "##ndon": 7142,
      "nix": 7143,
      "bulk": 7144,
      "##gno": 7145,
      "visited": 7146,
      "preserving": 7147,
      ".": 7148,
      "treaty": 7149,
      "viral": 7150,
      "dial": 7151,
      "canning": 7152,
      "fans": 7153,
      "##sing": 7154,
      "mendoza": 7155,
      "unnecessary": 7156,
      "district": 7157,
      "##gel": 7158,
      "##rti": 7159,
      "kit": 7160,
      "fundamental": 7161,
      "peak": 7162,
      "fan": 7163,
      "橋": 7164,
      "事": 7165,
      "yu": 7166,
      "##eaux": 7167,
      "##aco": 7168,
      "clubs": 7169,
      "jett": 7170,
      "freiburg": 7171,
      "##ku": 7172,
      "henri": 7173,
      "##lga": 7174,
      "relies": 7175,
      "assault": 7176,
      "identify": 7177,
      "nonsense": 7178,
      "213": 7179,
      "##erian": 7180,
      "amin": 7181,
      "ceo": 7182,
      "##duction": 7183,
      "##ы": 7184,
      "abdul": 7185,
      "jude": 7186,
      "many": 7187,
      "thru": 7188,
      "agile": 7189,
      "olaf": 7190,
      "ada": 7191,
      "fantastic": 7192,
      "scale": 7193,
      "milton": 7194,
      "##iso": 7195,
      "##lding": 7196,
      "##ン": 7197,
      "guards": 7198,
      "grit": 7199,
      "glenn": 7200,
      "paolo": 7201,
      "##tera": 7202,
      "σ": 7203,
      "chambers": 7204,
      "fit": 7205,
      "scare": 7206,
      "diane": 7207,
      "beds": 7208,
      "##kara": 7209,
      "melody": 7210,
      "##dom": 7211,
      "object": 7212,
      "##nier": 7213,
      "lays": 7214,
      "##wil": 7215,
      "delaware": 7216,
      "##ati": 7217,
      "perth": 7218,
      "ף": 7219,
      "benny": 7220,
      "warm": 7221,
      "spectacle": 7222,
      "greta": 7223,
      "stack": 7224,
      "lillian": 7225,
      "equivalent": 7226,
      "parkway": 7227,
      "argent": 7228,
      "skating": 7229,
      "bertram": 7230,
      "φ": 7231,
      "##lana": 7232,
      "2019": 7233,
      "##tique": 7234,
      "augmented": 7235,
      "pas": 7236,
      "quit": 7237,
      "ہ": 7238,
      "sip": 7239,
      "1990": 7240,
      "bind": 7241,
      "ס": 7242,
      "sandra": 7243,
      "##chio": 7244,
      "customs": 7245,
      "meant": 7246,
      "##nem": 7247,
      "##cre": 7248,
      "oman": 7249,
      "dairy": 7250,
      "##ome": 7251,
      "cordoba": 7252,
      "representative": 7253,
      "relaxation": 7254,
      "protect": 7255,
      "##bly": 7256,
      "feels": 7257,
      "efficient": 7258,
      "lark": 7259,
      "100": 7260,
      "deutsche": 7261,
      "collected": 7262,
      "clyde": 7263,
      "佐": 7264,
      "malcolm": 7265,
      "##iva": 7266,
      "##hit": 7267,
      "cc": 7268,
      "hereford": 7269,
      "kristin": 7270,
      "1976": 7271,
      "##hor": 7272,
      "tear": 7273,
      "advancement": 7274,
      "##τ": 7275,
      "exist": 7276,
      "whereas": 7277,
      "leave": 7278,
      "216": 7279,
      "attracted": 7280,
      "##wala": 7281,
      "義": 7282,
      "sunshine": 7283,
      "puerto": 7284,
      "crop": 7285,
      "##ntal": 7286,
      "purpose": 7287,
      "##tead": 7288,
      "326": 7289,
      "##tral": 7290,
      "##eca": 7291,
      "staff": 7292,
      "##lateral": 7293,
      "crime": 7294,
      "expensive": 7295,
      "negotiation": 7296,
      "accept": 7297,
      "directly": 7298,
      "##rring": 7299,
      "prepares": 7300,
      "decrease": 7301,
      "mesa": 7302,
      "surplus": 7303,
      "neon": 7304,
      "##mus": 7305,
      "##rington": 7306,
      "warrant": 7307,
      "ظ": 7308,
      "##horn": 7309,
      "mfa": 7310,
      "history": 7311,
      "##e": 7312,
      "1905": 7313,
      "″": 7314,
      "jody": 7315,
      "1000": 7316,
      "joy": 7317,
      "elements": 7318,
      "houston": 7319,
      "trash": 7320,
      "quarterly": 7321,
      "coastal": 7322,
      "discrimination": 7323,
      "1830": 7324,
      "##ef": 7325,
      "##hey": 7326,
      "irwin": 7327,
      "attributes": 7328,
      "ii": 7329,
      "##ron": 7330,
      "##鈴": 7331,
      "lateral": 7332,
      "ladder": 7333,
      "compact": 7334,
      "##tine": 7335,
      "player": 7336,
      "##ris": 7337,
      "cpu": 7338,
      "法": 7339,
      "##rp": 7340,
      "august": 7341,
      "significant": 7342,
      "##lier": 7343,
      "intention": 7344,
      "left": 7345,
      "glass": 7346,
      "##ail": 7347,
      "##hering": 7348,
      "supreme": 7349,
      "བ": 7350,
      "##raz": 7351,
      "odor": 7352,
      "##广": 7353,
      "##nir": 7354,
      "marco": 7355,
      "312": 7356,
      "comfort": 7357,
      "changing": 7358,
      "relatives": 7359,
      "augustine": 7360,
      "restore": 7361,
      "lids": 7362,
      "mirrors": 7363,
      "roll": 7364,
      "∗": 7365,
      "##土": 7366,
      "dilemma": 7367,
      "volga": 7368,
      "##and": 7369,
      "##nant": 7370,
      "ami": 7371,
      "adjusted": 7372,
      "##core": 7373,
      "glitter": 7374,
      "##cina": 7375,
      "creative": 7376,
      "##oven": 7377,
      "launching": 7378,
      "else": 7379,
      "recruitment": 7380,
      "urge": 7381,
      "##ees": 7382,
      "gdp": 7383,
      "##aro": 7384,
      "##wy": 7385,
      "2007": 7386,
      "##დ": 7387,
      "extensive": 7388,
      "ك": 7389,
      "jul": 7390,
      "1824": 7391,
      "norris": 7392,
      "##sio": 7393,
      "barr": 7394,
      "nellie": 7395,
      "capture": 7396,
      "##end": 7397,
      "range": 7398,
      "state": 7399,
      "abbot": 7400,
      "profit": 7401,
      "##heimer": 7402,
      "processor": 7403,
      "groves": 7404,
      "##ographic": 7405,
      "1764": 7406,
      "viii": 7407,
      "boo": 7408,
      "smoked": 7409,
      "信": 7410,
      "##wari": 7411,
      "##省": 7412,
      "roman": 7413,
      "yo": 7414,
      "georgia": 7415,
      "dismissed": 7416,
      "affect": 7417,
      "##yr": 7418,
      "logging": 7419,
      "##zle": 7420,
      "bourne": 7421,
      "verve": 7422,
      "greatly": 7423,
      "##dling": 7424,
      "ll": 7425,
      "##ography": 7426,
      "a2": 7427,
      "catalog": 7428,
      "319": 7429,
      "barton": 7430,
      "##nch": 7431,
      "herbert": 7432,
      "spray": 7433,
      "blank": 7434,
      "est": 7435,
      "##寺": 7436,
      "biological": 7437,
      "delayed": 7438,
      "columns": 7439,
      "substitution": 7440,
      "discuss": 7441,
      "card": 7442,
      "organizational": 7443,
      "##lty": 7444,
      "competence": 7445,
      "##owski": 7446,
      "oasis": 7447,
      "236": 7448,
      "klein": 7449,
      "annual": 7450,
      "silk": 7451,
      "deeply": 7452,
      "##hane": 7453,
      "##ora": 7454,
      "ligand": 7455,
      "it": 7456,
      "practiced": 7457,
      "ego": 7458,
      "intro": 7459,
      "sterling": 7460,
      "ze": 7461,
      "maestro": 7462,
      "303": 7463,
      "quiet": 7464,
      "screw": 7465,
      "##iste": 7466,
      "figuring": 7467,
      "holstein": 7468,
      "temple": 7469,
      "jump": 7470,
      "latter": 7471,
      "##ute": 7472,
      "##furt": 7473,
      "appearing": 7474,
      "春": 7475,
      "dummy": 7476,
      "exclude": 7477,
      "retirement": 7478,
      "alumni": 7479,
      "forever": 7480,
      "gods": 7481,
      "deliveries": 7482,
      "traveling": 7483,
      "terrible": 7484,
      "hiking": 7485,
      "lakeside": 7486,
      "recently": 7487,
      "##rita": 7488,
      "author": 7489,
      "ミ": 7490,
      "indonesia": 7491,
      "jar": 7492,
      "collins": 7493,
      "##tance": 7494,
      "##phs": 7495,
      "clearer": 7496,
      "honour": 7497,
      "##ement": 7498,
      "barney": 7499,
      "remains": 7500,
      "loop": 7501,
      "flared": 7502,
      "crazy": 7503,
      "##asurable": 7504,
      "kinda": 7505,
      "crown": 7506,
      "foothills": 7507,
      "ش": 7508,
      "parked": 7509,
      "katy": 7510,
      "pulse": 7511,
      "##izes": 7512,
      "##hler": 7513,
      "##hy": 7514,
      "busch": 7515,
      "pts": 7516,
      "broader": 7517,
      "orchid": 7518,
      "absorb": 7519,
      "##hora": 7520,
      "celeste": 7521,
      "ground": 7522,
      "##ნ": 7523,
      "bye": 7524,
      "##avs": 7525,
      "facts": 7526,
      "##hner": 7527,
      "christoph": 7528,
      "whispered": 7529,
      "##健": 7530,
      "lessons": 7531,
      "provinces": 7532,
      "darren": 7533,
      "simulated": 7534,
      "files": 7535,
      "##gun": 7536,
      "stresses": 7537,
      "##rso": 7538,
      "##ze": 7539,
      "lobby": 7540,
      "##anu": 7541,
      "pushing": 7542,
      "1938": 7543,
      "talking": 7544,
      "inputs": 7545,
      "died": 7546,
      "regular": 7547,
      "interviewed": 7548,
      "meantime": 7549,
      "lafayette": 7550,
      "staring": 7551,
      "northeast": 7552,
      "duane": 7553,
      "tome": 7554,
      "##eves": 7555,
      "##sil": 7556,
      "maureen": 7557,
      "mascara": 7558,
      "##rail": 7559,
      "chair": 7560,
      "##bba": 7561,
      "##fy": 7562,
      "##cki": 7563,
      "##xi": 7564,
      "openings": 7565,
      "##и": 7566,
      "cr": 7567,
      "mama": 7568,
      "##its": 7569,
      "moran": 7570,
      "dragging": 7571,
      "corridors": 7572,
      "324": 7573,
      "accordingly": 7574,
      "confident": 7575,
      "##tre": 7576,
      "exceptions": 7577,
      "123": 7578,
      "hiv": 7579,
      "runway": 7580,
      "##vich": 7581,
      "av": 7582,
      "simone": 7583,
      "credibility": 7584,
      "murals": 7585,
      "##gram": 7586,
      "buds": 7587,
      "demetrius": 7588,
      "£": 7589,
      "whispering": 7590,
      "17": 7591,
      "##around": 7592,
      "minsk": 7593,
      "##num": 7594,
      "technical": 7595,
      "##ハ": 7596,
      "vain": 7597,
      "montrose": 7598,
      "cyber": 7599,
      "amy": 7600,
      "expo": 7601,
      "422": 7602,
      "dillon": 7603,
      "php": 7604,
      "ᴬ": 7605,
      "polo": 7606,
      "##cm": 7607,
      "415": 7608,
      "／": 7609,
      "proxy": 7610,
      "##cure": 7611,
      "massachusetts": 7612,
      "##grant": 7613,
      "##kali": 7614,
      "navigator": 7615,
      "heightened": 7616,
      "mod": 7617,
      "mats": 7618,
      "hilbert": 7619,
      "##bari": 7620,
      "driver": 7621,
      "##vyn": 7622,
      "sienna": 7623,
      "dude": 7624,
      "stark": 7625,
      "##;": 7626,
      "##я": 7627,
      "合": 7628,
      "##な": 7629,
      "##ulation": 7630,
      "cone": 7631,
      "birth": 7632,
      "vilnius": 7633,
      "人": 7634,
      "september": 7635,
      "flow": 7636,
      "##ppa": 7637,
      "680": 7638,
      "1871": 7639,
      "##guard": 7640,
      "##drich": 7641,
      "since": 7642,
      "msc": 7643,
      "conducted": 7644,
      "granville": 7645,
      "##dan": 7646,
      "weight": 7647,
      "diagram": 7648,
      "加": 7649,
      "boulevard": 7650,
      "unnamed": 7651,
      "preliminary": 7652,
      "width": 7653,
      "##∩": 7654,
      "peru": 7655,
      "saline": 7656,
      "##irs": 7657,
      "venture": 7658,
      "##ust": 7659,
      "∨": 7660,
      "7": 7661,
      "districts": 7662,
      "##points": 7663,
      "##nga": 7664,
      "##hyl": 7665,
      "c2": 7666,
      "minds": 7667,
      "leaves": 7668,
      "##mins": 7669,
      "cycling": 7670,
      "ow": 7671,
      "herbal": 7672,
      "damage": 7673,
      "salt": 7674,
      "clifford": 7675,
      "corridor": 7676,
      "rejecting": 7677,
      "₀": 7678,
      "911": 7679,
      "##haling": 7680,
      "stitch": 7681,
      "violent": 7682,
      "oro": 7683,
      "##idad": 7684,
      "blocked": 7685,
      "rey": 7686,
      "vein": 7687,
      "blur": 7688,
      "vehicle": 7689,
      "liverpool": 7690,
      "journey": 7691,
      "optimization": 7692,
      "##adi": 7693,
      "198": 7694,
      "##ч": 7695,
      "##rg": 7696,
      "echoed": 7697,
      "incorporate": 7698,
      "abbas": 7699,
      "unionist": 7700,
      "augusto": 7701,
      "##holm": 7702,
      "け": 7703,
      "developer": 7704,
      "revenue": 7705,
      "##logic": 7706,
      "exotic": 7707,
      "fiona": 7708,
      "##ile": 7709,
      "leeds": 7710,
      "intentions": 7711,
      "particularly": 7712,
      "shit": 7713,
      "piper": 7714,
      "##at": 7715,
      "##urai": 7716,
      "239": 7717,
      "ufo": 7718,
      "heidi": 7719,
      "detect": 7720,
      "fact": 7721,
      "alps": 7722,
      "##糹": 7723,
      "introduces": 7724,
      "descend": 7725,
      "##estinal": 7726,
      "millions": 7727,
      "frankie": 7728,
      "0": 7729,
      "66": 7730,
      "##aby": 7731,
      "bucks": 7732,
      "delivers": 7733,
      "frontier": 7734,
      "vanessa": 7735,
      "##vo": 7736,
      "reply": 7737,
      "adolescents": 7738,
      "bala": 7739,
      "synthesis": 7740,
      "code": 7741,
      "1785": 7742,
      "##tten": 7743,
      "exhibits": 7744,
      "heading": 7745,
      "newly": 7746,
      "booked": 7747,
      "cozy": 7748,
      "commentary": 7749,
      "##ᵣ": 7750,
      "och": 7751,
      "response": 7752,
      "symphony": 7753,
      "inspiring": 7754,
      "foundations": 7755,
      "氷": 7756,
      "myself": 7757,
      "efficiency": 7758,
      "manufacturing": 7759,
      "mara": 7760,
      "भ": 7761,
      "export": 7762,
      "remainder": 7763,
      "spec": 7764,
      "##rrie": 7765,
      "steady": 7766,
      "##sms": 7767,
      "##31": 7768,
      "poe": 7769,
      "dos": 7770,
      "dancer": 7771,
      "eliot": 7772,
      "147": 7773,
      "wilkinson": 7774,
      "##hur": 7775,
      "natural": 7776,
      "fines": 7777,
      "mandated": 7778,
      "bea": 7779,
      "observations": 7780,
      "couples": 7781,
      "dance": 7782,
      "lina": 7783,
      "##eus": 7784,
      "defect": 7785,
      "connect": 7786,
      "##burg": 7787,
      "wetland": 7788,
      "globe": 7789,
      "disabilities": 7790,
      "nwa": 7791,
      "recycling": 7792,
      "wolf": 7793,
      "english": 7794,
      "segments": 7795,
      "unpaid": 7796,
      "filters": 7797,
      "rink": 7798,
      "ruined": 7799,
      "cody": 7800,
      "##lde": 7801,
      "sang": 7802,
      "walks": 7803,
      "amman": 7804,
      "herman": 7805,
      "optional": 7806,
      "##tara": 7807,
      "murphy": 7808,
      "##rt": 7809,
      "##ayo": 7810,
      "γ": 7811,
      "##yne": 7812,
      "sts": 7813,
      "dickinson": 7814,
      "alto": 7815,
      "giant": 7816,
      "##gui": 7817,
      "nhl": 7818,
      "esa": 7819,
      "accepts": 7820,
      "davis": 7821,
      "constitute": 7822,
      "brotherhood": 7823,
      "sing": 7824,
      "##ao": 7825,
      "ᅵ": 7826,
      "nacional": 7827,
      "mai": 7828,
      "jurisdiction": 7829,
      "##orus": 7830,
      "##ouse": 7831,
      "』": 7832,
      "surveyed": 7833,
      "kappa": 7834,
      "heather": 7835,
      "ruins": 7836,
      "luisa": 7837,
      "pigment": 7838,
      "collaborations": 7839,
      "##cript": 7840,
      "##к": 7841,
      "regardless": 7842,
      "rudd": 7843,
      "holes": 7844,
      "arthur": 7845,
      "214": 7846,
      "pledge": 7847,
      "grover": 7848,
      "school": 7849,
      "##ve": 7850,
      "##₄": 7851,
      "lucas": 7852,
      "jamie": 7853,
      "entertainment": 7854,
      "1838": 7855,
      "##way": 7856,
      "theo": 7857,
      "##ppel": 7858,
      "sash": 7859,
      "inhabit": 7860,
      "francoise": 7861,
      "limit": 7862,
      "upward": 7863,
      "scrambling": 7864,
      "bilateral": 7865,
      "profile": 7866,
      "worry": 7867,
      "rein": 7868,
      "touched": 7869,
      "850": 7870,
      "##fo": 7871,
      "georges": 7872,
      "shooting": 7873,
      "paradox": 7874,
      "wins": 7875,
      "tension": 7876,
      "##escu": 7877,
      "feeding": 7878,
      "##chule": 7879,
      "ע": 7880,
      "economic": 7881,
      "8th": 7882,
      "milestone": 7883,
      "ष": 7884,
      "promenade": 7885,
      "jordan": 7886,
      "rancho": 7887,
      "fare": 7888,
      "insider": 7889,
      "##治": 7890,
      "subscription": 7891,
      "pakistan": 7892,
      "emphasize": 7893,
      "irene": 7894,
      "hospitals": 7895,
      "##ating": 7896,
      "##ability": 7897,
      "##la": 7898,
      "citation": 7899,
      "napoli": 7900,
      "convinced": 7901,
      "##roll": 7902,
      "boss": 7903,
      "##field": 7904,
      "##、": 7905,
      "demonstration": 7906,
      "israelis": 7907,
      "ou": 7908,
      "lineage": 7909,
      "philosophical": 7910,
      "owing": 7911,
      "wilde": 7912,
      "quotes": 7913,
      "warner": 7914,
      "circles": 7915,
      "##illy": 7916,
      "新": 7917,
      "ʁ": 7918,
      "hoped": 7919,
      "katie": 7920,
      "sudden": 7921,
      "1016": 7922,
      "glen": 7923,
      "virtue": 7924,
      "##ך": 7925,
      "##¥": 7926,
      "amp": 7927,
      "幸": 7928,
      "1982": 7929,
      "enthusiast": 7930,
      "point": 7931,
      "wall": 7932,
      "alice": 7933,
      "##led": 7934,
      "##uche": 7935,
      "federation": 7936,
      "bayer": 7937,
      "wave": 7938,
      "layout": 7939,
      "boarding": 7940,
      "salvatore": 7941,
      "kiara": 7942,
      "kathy": 7943,
      "相": 7944,
      "м": 7945,
      "ħ": 7946,
      "bs": 7947,
      "##lu": 7948,
      "penny": 7949,
      "zero": 7950,
      "##eux": 7951,
      "χ": 7952,
      "##sily": 7953,
      "legacy": 7954,
      "##izing": 7955,
      "1086": 7956,
      "1901": 7957,
      "##tle": 7958,
      "representation": 7959,
      "##57": 7960,
      "瀬": 7961,
      "##u": 7962,
      "cash": 7963,
      "discretion": 7964,
      "grassroots": 7965,
      "shifted": 7966,
      "##գ": 7967,
      "##nac": 7968,
      "bo": 7969,
      "rolls": 7970,
      "treasury": 7971,
      "##has": 7972,
      "##ე": 7973,
      "acting": 7974,
      "stipulated": 7975,
      "engine": 7976,
      "##lc": 7977,
      "##rial": 7978,
      "radio": 7979,
      "bull": 7980,
      "maryland": 7981,
      "##strom": 7982,
      "spend": 7983,
      "otter": 7984,
      "spear": 7985,
      "aces": 7986,
      "journeys": 7987,
      "suspect": 7988,
      "homes": 7989,
      "##ta": 7990,
      "k": 7991,
      "possess": 7992,
      "aldo": 7993,
      "##ythe": 7994,
      "neil": 7995,
      "cats": 7996,
      "##љ": 7997,
      "thompson": 7998,
      "##idon": 7999,
      "##if": 8000,
      "keeps": 8001,
      "im": 8002,
      "tang": 8003,
      "##v": 8004,
      "hawk": 8005,
      "picture": 8006,
      "canton": 8007,
      "founded": 8008,
      "places": 8009,
      "##house": 8010,
      "begins": 8011,
      "lightweight": 8012,
      "conclusions": 8013,
      "depart": 8014,
      "muscle": 8015,
      "suspend": 8016,
      "loose": 8017,
      "##sberg": 8018,
      "said": 8019,
      "##de": 8020,
      "wrap": 8021,
      "lazy": 8022,
      "jeffrey": 8023,
      "351": 8024,
      "##গ": 8025,
      "##信": 8026,
      "already": 8027,
      "finest": 8028,
      "kamal": 8029,
      "beit": 8030,
      "wolfe": 8031,
      "connects": 8032,
      "walked": 8033,
      "whistle": 8034,
      "1700": 8035,
      "1648": 8036,
      "salazar": 8037,
      "louisa": 8038,
      "##hini": 8039,
      "hm": 8040,
      "jennifer": 8041,
      "##yson": 8042,
      "folklore": 8043,
      "##edo": 8044,
      "##bha": 8045,
      "159": 8046,
      "##nka": 8047,
      "##nell": 8048,
      "##rth": 8049,
      "assign": 8050,
      "ⁿ": 8051,
      "dylan": 8052,
      "soon": 8053,
      "centre": 8054,
      "##‑": 8055,
      "hanoi": 8056,
      "hui": 8057,
      "suzanne": 8058,
      "##erman": 8059,
      "accompany": 8060,
      "##jin": 8061,
      "vegetarian": 8062,
      "kang": 8063,
      "reaching": 8064,
      "nationale": 8065,
      "244": 8066,
      "##rise": 8067,
      "reproductive": 8068,
      "148": 8069,
      "extends": 8070,
      "climb": 8071,
      "favorable": 8072,
      "##istan": 8073,
      "lebanon": 8074,
      "144": 8075,
      "##ro": 8076,
      "strap": 8077,
      "contained": 8078,
      "aquatic": 8079,
      "##now": 8080,
      "pines": 8081,
      "don": 8082,
      "gr": 8083,
      "madame": 8084,
      "〈": 8085,
      "##rity": 8086,
      "##yo": 8087,
      "##ally": 8088,
      "670": 8089,
      "##ı": 8090,
      "manfred": 8091,
      "occasionally": 8092,
      "boost": 8093,
      "hints": 8094,
      "##nsk": 8095,
      "##yl": 8096,
      "champions": 8097,
      "extend": 8098,
      "much": 8099,
      "glance": 8100,
      "##kai": 8101,
      "vile": 8102,
      "##light": 8103,
      "fish": 8104,
      "у": 8105,
      "restructuring": 8106,
      "que": 8107,
      "colonel": 8108,
      "endowment": 8109,
      "##ה": 8110,
      "stadion": 8111,
      "surveys": 8112,
      "carrier": 8113,
      "greenfield": 8114,
      "lies": 8115,
      "gil": 8116,
      "commercial": 8117,
      "purchased": 8118,
      "##umi": 8119,
      "automation": 8120,
      "hangs": 8121,
      "instructors": 8122,
      "gwen": 8123,
      "answered": 8124,
      "mace": 8125,
      "##lot": 8126,
      "kinds": 8127,
      "external": 8128,
      "##yria": 8129,
      "##bala": 8130,
      "##rr": 8131,
      "native": 8132,
      "und": 8133,
      "network": 8134,
      "fatigue": 8135,
      "reginald": 8136,
      "recover": 8137,
      "##gi": 8138,
      "welch": 8139,
      "gillian": 8140,
      "##16": 8141,
      "deal": 8142,
      "##rga": 8143,
      "##ck": 8144,
      "გ": 8145,
      "##das": 8146,
      "lighting": 8147,
      "abby": 8148,
      "##rius": 8149,
      "##∆": 8150,
      "disc": 8151,
      "physicians": 8152,
      "yours": 8153,
      "thing": 8154,
      "##ப": 8155,
      "37": 8156,
      "gloria": 8157,
      "pregnancy": 8158,
      "##non": 8159,
      "national": 8160,
      "alma": 8161,
      "##thes": 8162,
      "bronze": 8163,
      "##mani": 8164,
      "##ool": 8165,
      "##nte": 8166,
      "nara": 8167,
      "##nse": 8168,
      "ᵘ": 8169,
      "everything": 8170,
      "gore": 8171,
      "nl": 8172,
      "maverick": 8173,
      "မ": 8174,
      "watershed": 8175,
      "poster": 8176,
      "m³": 8177,
      "ள": 8178,
      "ecuador": 8179,
      "vietnam": 8180,
      "ac": 8181,
      "clusters": 8182,
      "cara": 8183,
      "1874": 8184,
      "##nst": 8185,
      "monitor": 8186,
      "surveillance": 8187,
      "##uria": 8188,
      "preparations": 8189,
      "##ₗ": 8190,
      "ц": 8191,
      "tired": 8192,
      "bundle": 8193,
      "##loaded": 8194,
      "teen": 8195,
      "##all": 8196,
      "animals": 8197,
      "##chman": 8198,
      "an": 8199,
      "meaningful": 8200,
      "configuration": 8201,
      "μ": 8202,
      "danes": 8203,
      "##vi": 8204,
      "northwest": 8205,
      "grant": 8206,
      "435": 8207,
      "psychic": 8208,
      "woven": 8209,
      "##ulf": 8210,
      "##前": 8211,
      "marlon": 8212,
      "brush": 8213,
      "##olio": 8214,
      "camping": 8215,
      "yang": 8216,
      "channels": 8217,
      "jason": 8218,
      "british": 8219,
      "1975": 8220,
      "consent": 8221,
      "malmo": 8222,
      "sealed": 8223,
      "日": 8224,
      "##plication": 8225,
      "clues": 8226,
      "volatile": 8227,
      "fjord": 8228,
      "eugen": 8229,
      "meters": 8230,
      "partner": 8231,
      "mandate": 8232,
      "##rana": 8233,
      "moist": 8234,
      "##chel": 8235,
      "posse": 8236,
      "willing": 8237,
      "##tment": 8238,
      "##oint": 8239,
      "craig": 8240,
      "##ₐ": 8241,
      "champion": 8242,
      "##mar": 8243,
      "subscribers": 8244,
      "kahn": 8245,
      "ali": 8246,
      "##nz": 8247,
      "mosque": 8248,
      "kane": 8249,
      "##ight": 8250,
      "##ly": 8251,
      "##ml": 8252,
      "publicly": 8253,
      "luck": 8254,
      "ge": 8255,
      "bonnie": 8256,
      "314": 8257,
      "mc": 8258,
      "recruiting": 8259,
      "##ogan": 8260,
      "##hue": 8261,
      "anxiety": 8262,
      "jihad": 8263,
      "##ude": 8264,
      "##ls": 8265,
      "trump": 8266,
      "venus": 8267,
      "breakthrough": 8268,
      "##issa": 8269,
      "1680": 8270,
      "##rons": 8271,
      "lung": 8272,
      "1849": 8273,
      "421": 8274,
      "##cum": 8275,
      "baking": 8276,
      "well": 8277,
      "exempt": 8278,
      "zen": 8279,
      "disclosed": 8280,
      "counting": 8281,
      "##tenberg": 8282,
      "##bian": 8283,
      "nhs": 8284,
      "##sco": 8285,
      "conservatives": 8286,
      "grady": 8287,
      "史": 8288,
      "taught": 8289,
      "evacuation": 8290,
      "respond": 8291,
      "##fus": 8292,
      "tb": 8293,
      "flexibility": 8294,
      "良": 8295,
      "##।": 8296,
      "##bla": 8297,
      "personal": 8298,
      "path": 8299,
      "stratford": 8300,
      "spit": 8301,
      "ambassadors": 8302,
      "tool": 8303,
      "nordic": 8304,
      "ो": 8305,
      "greenwich": 8306,
      "pickering": 8307,
      "##uts": 8308,
      "writing": 8309,
      "##ʿ": 8310,
      "constitution": 8311,
      "bran": 8312,
      "70": 8313,
      "geneva": 8314,
      "##『": 8315,
      "planetary": 8316,
      "soundtrack": 8317,
      "##ק": 8318,
      "read": 8319,
      "mechanical": 8320,
      "ultimate": 8321,
      "recognition": 8322,
      "charley": 8323,
      "rowan": 8324,
      "##ution": 8325,
      "senior": 8326,
      "##print": 8327,
      "##verance": 8328,
      "##ð": 8329,
      "イ": 8330,
      "decades": 8331,
      "notably": 8332,
      "rob": 8333,
      "##ede": 8334,
      "cooperation": 8335,
      "cable": 8336,
      "##נ": 8337,
      "occasional": 8338,
      "##tec": 8339,
      "measurements": 8340,
      "/": 8341,
      "1800": 8342,
      "comet": 8343,
      "म": 8344,
      "\"": 8345,
      "cad": 8346,
      "privileged": 8347,
      "contra": 8348,
      "adi": 8349,
      "##ined": 8350,
      "##ulio": 8351,
      "##cliffe": 8352,
      "http": 8353,
      "lounge": 8354,
      "mechanisms": 8355,
      "##mind": 8356,
      "。": 8357,
      "india": 8358,
      "##uw": 8359,
      "nutritional": 8360,
      "led": 8361,
      "##ezer": 8362,
      "##zen": 8363,
      "pilgrimage": 8364,
      "##chin": 8365,
      "irish": 8366,
      "mississippi": 8367,
      "festival": 8368,
      "##雄": 8369,
      "lima": 8370,
      "upgrading": 8371,
      "##mon": 8372,
      "フ": 8373,
      "trey": 8374,
      "influence": 8375,
      "enclosed": 8376,
      "##qui": 8377,
      "threads": 8378,
      "secretaries": 8379,
      "trap": 8380,
      ",": 8381,
      "import": 8382,
      "accuse": 8383,
      "##uid": 8384,
      "otis": 8385,
      "ness": 8386,
      "##inger": 8387,
      "##kin": 8388,
      "##ory": 8389,
      "melissa": 8390,
      "##lusion": 8391,
      "threw": 8392,
      "continuity": 8393,
      "sci": 8394,
      "saying": 8395,
      "sigh": 8396,
      "junta": 8397,
      "##cratic": 8398,
      "sleeping": 8399,
      "##yna": 8400,
      "hey": 8401,
      "1920s": 8402,
      "overwhelmed": 8403,
      "ct": 8404,
      "lal": 8405,
      "coup": 8406,
      "danger": 8407,
      "boil": 8408,
      "scholar": 8409,
      "##ں": 8410,
      "imagery": 8411,
      "timer": 8412,
      "barak": 8413,
      "match": 8414,
      "reality": 8415,
      "nova": 8416,
      "##vas": 8417,
      "exterior": 8418,
      "roi": 8419,
      "equality": 8420,
      "economist": 8421,
      "1842": 8422,
      "##shing": 8423,
      "宇": 8424,
      "dietrich": 8425,
      "crab": 8426,
      "##)": 8427,
      "stopped": 8428,
      "thousand": 8429,
      "meteor": 8430,
      "##rmi": 8431,
      "norte": 8432,
      "广": 8433,
      "##l": 8434,
      "slow": 8435,
      "##yles": 8436,
      "##ر": 8437,
      "member": 8438,
      "assessed": 8439,
      "driven": 8440,
      "##人": 8441,
      "willie": 8442,
      "reagan": 8443,
      "group": 8444,
      "manage": 8445,
      "##sible": 8446,
      "rr": 8447,
      "demand": 8448,
      "necklace": 8449,
      "##imo": 8450,
      "processing": 8451,
      "pill": 8452,
      "##vant": 8453,
      "francisco": 8454,
      "gaa": 8455,
      "design": 8456,
      "##ᆷ": 8457,
      "##ration": 8458,
      "##ilia": 8459,
      "##dak": 8460,
      "##rred": 8461,
      "measures": 8462,
      "hello": 8463,
      "##itor": 8464,
      "anomaly": 8465,
      "ɫ": 8466,
      "in": 8467,
      "##ot": 8468,
      "allocation": 8469,
      "isn": 8470,
      "hai": 8471,
      "silas": 8472,
      "##pro": 8473,
      "##on": 8474,
      "midnight": 8475,
      "campos": 8476,
      "##que": 8477,
      "gonna": 8478,
      "wc": 8479,
      "matthew": 8480,
      "colors": 8481,
      "increases": 8482,
      "katrina": 8483,
      "##df": 8484,
      "spices": 8485,
      "summit": 8486,
      "emilia": 8487,
      "##lane": 8488,
      "bound": 8489,
      "ton": 8490,
      "bt": 8491,
      "synth": 8492,
      "1660": 8493,
      "discharge": 8494,
      "1803": 8495,
      "selection": 8496,
      "balls": 8497,
      "drained": 8498,
      "getting": 8499,
      "perhaps": 8500,
      "themed": 8501,
      "flare": 8502,
      "halt": 8503,
      "joel": 8504,
      "imaging": 8505,
      "summons": 8506,
      "eden": 8507,
      "##uddin": 8508,
      "##itical": 8509,
      "horseshoe": 8510,
      "wah": 8511,
      "##yin": 8512,
      "promoted": 8513,
      "cycles": 8514,
      "declan": 8515,
      "killed": 8516,
      "spelling": 8517,
      "ignatius": 8518,
      "##jean": 8519,
      "johnnie": 8520,
      "courtyard": 8521,
      "##aton": 8522,
      "pound": 8523,
      "seems": 8524,
      "wade": 8525,
      "juan": 8526,
      "polymer": 8527,
      "releases": 8528,
      "vic": 8529,
      "indy": 8530,
      "messages": 8531,
      "khalid": 8532,
      "##র": 8533,
      "statistics": 8534,
      "were": 8535,
      "authorities": 8536,
      "underground": 8537,
      "study": 8538,
      "##gam": 8539,
      "##60": 8540,
      "mania": 8541,
      "documents": 8542,
      "grave": 8543,
      "morrison": 8544,
      "mostly": 8545,
      "lester": 8546,
      "harsh": 8547,
      "bernardo": 8548,
      "eating": 8549,
      "1808": 8550,
      "##henko": 8551,
      "##lation": 8552,
      "setting": 8553,
      "councillor": 8554,
      "hk": 8555,
      "africa": 8556,
      "##خ": 8557,
      "##ᵘ": 8558,
      "article": 8559,
      "##ones": 8560,
      "boosted": 8561,
      "wizard": 8562,
      "troubles": 8563,
      "##ₕ": 8564,
      "creek": 8565,
      "torment": 8566,
      "daniel": 8567,
      "cow": 8568,
      "hate": 8569,
      "hyun": 8570,
      "##高": 8571,
      "##ulus": 8572,
      "clean": 8573,
      "##橋": 8574,
      "269": 8575,
      "gaining": 8576,
      "walnut": 8577,
      "pure": 8578,
      "1980": 8579,
      "1646": 8580,
      "##bution": 8581,
      "youth": 8582,
      "anal": 8583,
      "weighted": 8584,
      "individual": 8585,
      "##с": 8586,
      "jet": 8587,
      "edouard": 8588,
      "##che": 8589,
      "missiles": 8590,
      "asked": 8591,
      "##falls": 8592,
      "clifton": 8593,
      "restricted": 8594,
      "##isan": 8595,
      "tourism": 8596,
      "1770": 8597,
      "167": 8598,
      "zheng": 8599,
      "complaint": 8600,
      "johnson": 8601,
      "differing": 8602,
      "participant": 8603,
      "ramp": 8604,
      "cream": 8605,
      "tracy": 8606,
      "1701": 8607,
      "celebrated": 8608,
      "ign": 8609,
      "mice": 8610,
      "##w": 8611,
      "felix": 8612,
      "approve": 8613,
      "chasing": 8614,
      "met": 8615,
      "pollution": 8616,
      "hari": 8617,
      "##aer": 8618,
      "##rien": 8619,
      "sales": 8620,
      "lamp": 8621,
      "##hol": 8622,
      "paddle": 8623,
      "##ami": 8624,
      "contest": 8625,
      "stroke": 8626,
      "260": 8627,
      "ascent": 8628,
      "##jong": 8629,
      "focus": 8630,
      "##emann": 8631,
      "##方": 8632,
      "##13": 8633,
      "##kei": 8634,
      "friday": 8635,
      "properly": 8636,
      "magnus": 8637,
      "255": 8638,
      "cristina": 8639,
      "##cens": 8640,
      "insane": 8641,
      "##iss": 8642,
      "chosen": 8643,
      "##ა": 8644,
      "##学": 8645,
      "##ios": 8646,
      "tracker": 8647,
      "ev": 8648,
      "see": 8649,
      "т": 8650,
      "##gar": 8651,
      "viruses": 8652,
      "statistical": 8653,
      "valentine": 8654,
      "barack": 8655,
      "##chen": 8656,
      "ʾ": 8657,
      "buses": 8658,
      "test": 8659,
      "die": 8660,
      "bi": 8661,
      "##ened": 8662,
      "render": 8663,
      "studio": 8664,
      "dare": 8665,
      "directing": 8666,
      "ben": 8667,
      "kiran": 8668,
      "##mara": 8669,
      "##eter": 8670,
      "revisions": 8671,
      "##ette": 8672,
      "orchard": 8673,
      "atlantic": 8674,
      "259": 8675,
      "knife": 8676,
      "##hi": 8677,
      "dail": 8678,
      "weird": 8679,
      "##qua": 8680,
      "not": 8681,
      "portals": 8682,
      "dean": 8683,
      "stories": 8684,
      "gm": 8685,
      "##put": 8686,
      "functionality": 8687,
      "##ん": 8688,
      "##rao": 8689,
      "finger": 8690,
      "##lls": 8691,
      "carla": 8692,
      "dignity": 8693,
      "airline": 8694,
      "vary": 8695,
      "cloth": 8696,
      "##osition": 8697,
      "page": 8698,
      "nam": 8699,
      "prototype": 8700,
      "##つ": 8701,
      "chili": 8702,
      "melt": 8703,
      "haas": 8704,
      "spotlight": 8705,
      "##lt": 8706,
      "ய": 8707,
      "drawer": 8708,
      "survivor": 8709,
      "compton": 8710,
      "##bert": 8711,
      "transmission": 8712,
      "cox": 8713,
      "bret": 8714,
      "##ese": 8715,
      "##krishna": 8716,
      "resolved": 8717,
      "hired": 8718,
      "##fur": 8719,
      "##sable": 8720,
      "outfit": 8721,
      "##mable": 8722,
      "noel": 8723,
      "hazard": 8724,
      "##ф": 8725,
      "164": 8726,
      "malaysia": 8727,
      "downs": 8728,
      "intervals": 8729,
      "690": 8730,
      "conserve": 8731,
      "bloc": 8732,
      "instrument": 8733,
      "##nbc": 8734,
      "bungalow": 8735,
      "llc": 8736,
      "packages": 8737,
      "blew": 8738,
      "##text": 8739,
      "13": 8740,
      "##公": 8741,
      "marcos": 8742,
      "##エ": 8743,
      "nme": 8744,
      "detail": 8745,
      "##mming": 8746,
      "##bal": 8747,
      "kept": 8748,
      "##hel": 8749,
      "1780": 8750,
      "humanity": 8751,
      "saddam": 8752,
      "valuable": 8753,
      "invites": 8754,
      "##hall": 8755,
      "26th": 8756,
      "##成": 8757,
      "amounts": 8758,
      "diplomacy": 8759,
      "##門": 8760,
      "flood": 8761,
      "24": 8762,
      "bank": 8763,
      "470": 8764,
      "fx": 8765,
      "during": 8766,
      "sy": 8767,
      "geo": 8768,
      "′": 8769,
      "amino": 8770,
      "dumped": 8771,
      "scares": 8772,
      "##lbert": 8773,
      "##ores": 8774,
      "olson": 8775,
      "##ad": 8776,
      "mustafa": 8777,
      "runs": 8778,
      "calculate": 8779,
      "）": 8780,
      "hot": 8781,
      "seal": 8782,
      "##erin": 8783,
      "planned": 8784,
      "##omo": 8785,
      "min": 8786,
      "bis": 8787,
      "relationship": 8788,
      "talk": 8789,
      "rebels": 8790,
      "legends": 8791,
      "journalists": 8792,
      "unions": 8793,
      "including": 8794,
      "##sy": 8795,
      "beta": 8796,
      "730": 8797,
      "alexandria": 8798,
      "mimi": 8799,
      "ง": 8800,
      "sr": 8801,
      "solo": 8802,
      "##lor": 8803,
      "505": 8804,
      "##vert": 8805,
      "「": 8806,
      "##ण": 8807,
      "patrons": 8808,
      "##bt": 8809,
      "##lmer": 8810,
      "##訁": 8811,
      "semi": 8812,
      "contribution": 8813,
      "florida": 8814,
      "##mmel": 8815,
      "1794": 8816,
      "##avi": 8817,
      "patients": 8818,
      "madeline": 8819,
      "##ssion": 8820,
      "notion": 8821,
      "seconds": 8822,
      "##gard": 8823,
      "delaying": 8824,
      "ken": 8825,
      "totaling": 8826,
      "thursday": 8827,
      "keenan": 8828,
      "especially": 8829,
      "organism": 8830,
      "admire": 8831,
      "##uve": 8832,
      "arid": 8833,
      "walt": 8834,
      "santiago": 8835,
      "bonuses": 8836,
      "##ion": 8837,
      "##du": 8838,
      "ག": 8839,
      "remember": 8840,
      "221": 8841,
      "ap": 8842,
      "keynote": 8843,
      "目": 8844,
      "buying": 8845,
      "hazardous": 8846,
      "##tose": 8847,
      "showcases": 8848,
      "##nian": 8849,
      "matches": 8850,
      "⊕": 8851,
      "seoul": 8852,
      "arrondissement": 8853,
      "dept": 8854,
      "##unt": 8855,
      "joe": 8856,
      "##ael": 8857,
      "##之": 8858,
      "##／": 8859,
      "##rde": 8860,
      "simulator": 8861,
      "##tner": 8862,
      "##cs": 8863,
      "depends": 8864,
      "hilda": 8865,
      "serge": 8866,
      "cia": 8867,
      "pew": 8868,
      "troupe": 8869,
      "##ern": 8870,
      "cleaning": 8871,
      "loch": 8872,
      "u2": 8873,
      "clinics": 8874,
      "##haya": 8875,
      "specifies": 8876,
      "trips": 8877,
      "store": 8878,
      "expect": 8879,
      "organise": 8880,
      "##cr": 8881,
      "completely": 8882,
      "1985": 8883,
      "pirate": 8884,
      "##cote": 8885,
      "stevie": 8886,
      "न": 8887,
      "##tek": 8888,
      "##yeh": 8889,
      "##ᆯ": 8890,
      "shore": 8891,
      "##aldo": 8892,
      "baseline": 8893,
      "successor": 8894,
      "##yi": 8895,
      "ב": 8896,
      "##pati": 8897,
      "shang": 8898,
      "insects": 8899,
      "zurich": 8900,
      "straight": 8901,
      "##nder": 8902,
      "##race": 8903,
      "hide": 8904,
      "##khar": 8905,
      "environment": 8906,
      "cord": 8907,
      "##ual": 8908,
      "mapping": 8909,
      "iran": 8910,
      "franklin": 8911,
      "contributors": 8912,
      "##♦": 8913,
      "##gren": 8914,
      "powerful": 8915,
      "##oes": 8916,
      "##ffen": 8917,
      "tavi": 8918,
      "##চ": 8919,
      "did": 8920,
      "1845": 8921,
      "##hosh": 8922,
      "##xa": 8923,
      "museo": 8924,
      "##dition": 8925,
      "##থ": 8926,
      "modulation": 8927,
      "249": 8928,
      "impact": 8929,
      "##gation": 8930,
      "##dar": 8931,
      "rushed": 8932,
      "##見": 8933,
      "commodity": 8934,
      "##lce": 8935,
      "294": 8936,
      "##claim": 8937,
      "baton": 8938,
      "kei": 8939,
      "deposit": 8940,
      "##ye": 8941,
      "##lou": 8942,
      "া": 8943,
      "hiss": 8944,
      "contain": 8945,
      "dunes": 8946,
      "郡": 8947,
      "sp": 8948,
      "mandal": 8949,
      "diabetes": 8950,
      "hurt": 8951,
      "hyper": 8952,
      "depending": 8953,
      "##illa": 8954,
      "ン": 8955,
      "freddy": 8956,
      "ra": 8957,
      "attire": 8958,
      "bore": 8959,
      "hydrogen": 8960,
      "write": 8961,
      "stimulation": 8962,
      "1954": 8963,
      "festivals": 8964,
      "interfere": 8965,
      "5": 8966,
      "##kle": 8967,
      "household": 8968,
      "prospective": 8969,
      "##gor": 8970,
      "##ian": 8971,
      "65": 8972,
      "##ए": 8973,
      "threatening": 8974,
      "mixture": 8975,
      "mor": 8976,
      "ม": 8977,
      "off": 8978,
      "dense": 8979,
      "window": 8980,
      "##gist": 8981,
      "substance": 8982,
      "emphasis": 8983,
      "pad": 8984,
      "vikram": 8985,
      "deciding": 8986,
      "1748": 8987,
      "watt": 8988,
      "camera": 8989,
      "##rasia": 8990,
      "##iting": 8991,
      "tip": 8992,
      "##ances": 8993,
      "privacy": 8994,
      "attacks": 8995,
      "applicable": 8996,
      "բ": 8997,
      "probable": 8998,
      "##rdi": 8999,
      "constant": 9000,
      "thermal": 9001,
      "giles": 9002,
      "broke": 9003,
      "bakery": 9004,
      "##gni": 9005,
      "##uta": 9006,
      "1921": 9007,
      "via": 9008,
      "beneficial": 9009,
      "ა": 9010,
      "1779": 9011,
      "terrific": 9012,
      "adequate": 9013,
      "##unds": 9014,
      "##ᄐ": 9015,
      "吉": 9016,
      "first": 9017,
      "##ほ": 9018,
      "motifs": 9019,
      "backpack": 9020,
      "food": 9021,
      "##lates": 9022,
      "##oses": 9023,
      "thunder": 9024,
      "salon": 9025,
      "##uration": 9026,
      "house": 9027,
      "gem": 9028,
      "##jk": 9029,
      "##¾": 9030,
      "regret": 9031,
      "##་": 9032,
      "##mi": 9033,
      "##mme": 9034,
      "##kit": 9035,
      "rate": 9036,
      "##ish": 9037,
      "星": 9038,
      "job": 9039,
      "hp": 9040,
      "##nagar": 9041,
      "marking": 9042,
      "##sb": 9043,
      "##don": 9044,
      "##bl": 9045,
      "-": 9046,
      "##itive": 9047,
      "shirts": 9048,
      "arrive": 9049,
      "gravity": 9050,
      "##eon": 9051,
      "buyers": 9052,
      "ants": 9053,
      "zoning": 9054,
      "destinations": 9055,
      "##fra": 9056,
      "williamson": 9057,
      "telegram": 9058,
      "transcript": 9059,
      "##მ": 9060,
      "irrigation": 9061,
      "##oor": 9062,
      "gun": 9063,
      "jade": 9064,
      "##ρ": 9065,
      "crafted": 9066,
      "耳": 9067,
      "sofie": 9068,
      "##aq": 9069,
      "todd": 9070,
      "##hman": 9071,
      "ee": 9072,
      "protest": 9073,
      "reference": 9074,
      "##uder": 9075,
      "##usion": 9076,
      "##gger": 9077,
      "attempt": 9078,
      "accessories": 9079,
      "solution": 9080,
      "##elo": 9081,
      "stable": 9082,
      "seine": 9083,
      "calculations": 9084,
      "lighthouse": 9085,
      "##ldon": 9086,
      "optimism": 9087,
      "ned": 9088,
      "augustus": 9089,
      "laptop": 9090,
      "keeping": 9091,
      "divorce": 9092,
      "julian": 9093,
      "climax": 9094,
      "thanksgiving": 9095,
      "automobile": 9096,
      "bars": 9097,
      "arden": 9098,
      "viewing": 9099,
      "watch": 9100,
      "gigs": 9101,
      "##gil": 9102,
      "warns": 9103,
      "##ping": 9104,
      "##》": 9105,
      "##ners": 9106,
      "##lham": 9107,
      "glasgow": 9108,
      "arm": 9109,
      "afterwards": 9110,
      "paxton": 9111,
      "excited": 9112,
      "inspired": 9113,
      "typed": 9114,
      "enoch": 9115,
      "文": 9116,
      "1915": 9117,
      "accounted": 9118,
      "##ardo": 9119,
      "spine": 9120,
      "##uding": 9121,
      "##社": 9122,
      "wax": 9123,
      "shrine": 9124,
      "tess": 9125,
      "1724": 9126,
      "mangrove": 9127,
      "raf": 9128,
      "276": 9129,
      "chains": 9130,
      "pascal": 9131,
      "passive": 9132,
      "electoral": 9133,
      "##isch": 9134,
      "##encia": 9135,
      "andrew": 9136,
      "##eiro": 9137,
      "gene": 9138,
      "gust": 9139,
      "der": 9140,
      "missed": 9141,
      "1500": 9142,
      "ortiz": 9143,
      "pe": 9144,
      "certification": 9145,
      "discus": 9146,
      "##eira": 9147,
      "excluded": 9148,
      "pump": 9149,
      "duncan": 9150,
      "slopes": 9151,
      "selena": 9152,
      "dolores": 9153,
      "##im": 9154,
      "outgoing": 9155,
      "marvin": 9156,
      "124": 9157,
      "yen": 9158,
      "v6": 9159,
      "rodriguez": 9160,
      "exists": 9161,
      "江": 9162,
      "norms": 9163,
      "skills": 9164,
      "strips": 9165,
[...]
