[PAD]
[UNK]
[CLS]
[SEP]
[MASK]
accreditation
june
nunez
indo
easier
ticket
uganda
##sti
should
grass
photography
medication
opportunities
##inations
##貝
moving
##f
花
managed
##ciation
reconcile
jian
casa
begging
producing
instruction
russell
##rim
industrial
parisian
village
子
##ard
women
##tering
guido
prove
dances
##eck
scene
##sk
kern
1865
embracing
angie
32
wind
codes
requested
##香
##ichi
ariel
continued
emory
##load
sight
mill
##⇒
##owa
western
1649
diving
##osa
bless
junk
influences
##ies
punta
215
1664
##cera
binding
affiliated
edith
##berg
like
1967
bed
melvin
languages
eco
sponsor
because
ensures
##quist
feeling
241
billy
confirms
catch
devices
wise
labels
trucks
##を
##ful
schedule
amos
benton
billions
ri
401
organic
your
fisher
##bir
pending
##cher
##द
mug
##feng
##ulla
##vna
overcome
holdings
battista
ᅲ
drama
50
terry
タ
emerald
mira
166
西
business
diesel
##naire
ᵍ
wand
domingo
marguerite
downloaded
##lip
##scia
##水
chief
assuming
ノ
stern
##ि
gala
奈
roads
cp
##ო
determined
##cturing
centres
bien
rt
pediatric
238
grown
##iya
battery
##rac
##rf
brute
working
leto
parent
influential
##rey
ratings
creating
connectivity
−
137
sees
forgiveness
mounted
1761
710
vast
2014
berry
##or
denim
1898
batteries
##ajan
suit
sai
##州
##ley
realized
chorus
noise
##bber
##歌
lame
james
pennsylvania
second
critical
complementary
##dam
panorama
##mer
ride
ngos
allowed
mandarin
pristine
facilitate
editions
jungle
dies
cell
thoughts
##rre
1605
rescue
##adia
下
challenge
##zi
##is
passes
juarez
1747
##rigues
maze
##iba
dirk
##graph
ब
ok
vita
##backs
##空
fuck
##cal
balanced
guaranteed
grape
producer
南
##ped
behind
handwriting
##alic
##liche
##青
##cek
##turn
argentina
retired
topic
mascot
moe
karim
to
cod
dozen
##tter
percy
saves
portsmouth
unity
engraving
و
##logram
tv
##ski
rue
##arian
qui
cold
fusion
narratives
users
destruction
ports
##nis
this
##代
##pack
pieter
reached
93
marcelo
salzburg
analyze
michele
251
mckenzie
flights
cl
internet
101
pi
israeli
ives
chatham
himself
mathew
##balance
global
##nh
delay
##cino
jokes
sutton
congestion
gustave
##oc
##nnis
important
##tale
balcony
malay
garment
tod
shores
heritage
jj
##ா
speed
referring
transaction
widespread
abbey
eta
evergreen
enterprises
sac
deputy
##ա
undergo
standardized
##mity
##berman
##lene
stake
##vor
mexican
##el
syndrome
institut
skier
pool
beforehand
reflective
##ী
grill
caitlin
##tin
wilson
consolidated
sufi
quad
walton
ark
reside
homme
pilot
##mple
abroad
1876
sticking
##wide
campaign
aesthetic
compassionate
impacted
nec
foul
accurate
##ℝ
anyone
programs
vijay
tsar
rehab
trend
海
##ates
##阿
sherman
##曲
alexa
lyon
parental
own
##ff
stamped
##vs
218
##宮
tradition
gay
##rino
convened
normally
##name
baggage
##kt
1951
horn
##ła
prepare
enough
norwich
talent
daytime
##nds
represented
##genic
##ied
franco
疒
coffee
fairness
vitamin
##щ
ordinance
appearance
##nes
haven
crisis
##up
spans
labour
##rea
royce
ox
dorm
hoop
delilah
awaiting
##lous
##仁
92
exchanged
neighbours
eclipse
waves
rpm
brad
fae
hardware
foraging
##icing
renewed
##imov
swiss
##ures
##س
doug
initiatives
planes
र
pilgrims
direct
##彳
license
graves
rq
##llation
tanker
irs
dina
economies
##iff
evil
tripoli
##gt
egyptian
herself
oldest
ﬁ
##icon
coral
hut
enclosure
controller
tight
##tis
forced
##ix
reviewing
joey
fares
##政
cleared
make
recommends
##mal
##edd
gesellschaft
cruz
intake
base
へ
297
ecole
##cha
personality
reads
hernandez
spotted
##ف
formula
linguist
cynthia
vie
move
idaho
##lizer
riga
##へ
##ding
opposed
sleep
compounds
kyle
（
necessary
##away
##vu
mit
##trick
404
ط
##est
het
tory
##pass
##sei
done
university
reports
pregnant
##wall
hon
determination
concerto
laundry
clube
##id
##iger
married
chaotic
kindness
##འ
174
ड
saturn
737
##king
##grade
##vil
log
confidence
°
textiles
vila
sighting
brien
removing
##zos
##pod
org
##mento
1760
surreal
erich
trent
arrange
gao
ia
##j
ensemble
waste
24th
fewer
avant
reece
clement
musa
boulder
##ӏ
つ
土
minimize
forensic
gradual
##ho
##վ
scripts
##御
##cen
z
productions
69
punk
fake
molly
rocky
compose
excused
talks
marriage
fill
interested
##η
luigi
lure
formats
fredrik
thanked
sink
bait
enthusiasm
achieved
##uil
ahmedabad
„
failed
humidity
year
##生
ァ
##mata
snap
##held
stoke
fame
tuba
section
##cade
eduard
uncover
doi
##nx
monroe
electron
contains
specialty
##leaf
2003
onto
ace
##sd
##ven
##sir
polished
recreation
##tell
##rus
messaging
##ᆼ
economics
swan
kiss
##90
interval
pal
rap
mad
##ays
##sity
13th
breeze
attribute
frederic
germans
##chua
holidays
speculative
cuba
∂
bringing
##erty
ス
leonid
venue
412
##59
##千
prayer
amiga
cells
serving
nighttime
1721
cb
cade
##just
future
##eza
♥
processed
adopt
analysis
dangerous
##region
ﬂ
##bat
van
2013
##np
admitted
##with
robyn
library
veterinary
butte
##լ
城
displayed
##osi
francais
##kova
##ee
##sure
diaspora
lodging
we
wealth
bordeaux
##tani
か
##rds
satisfy
ryan
regularly
460
pinto
expects
coherent
workforce
##beau
##अ
functions
##fl
##版
overlooking
##zak
sheldon
themes
small
harold
recipients
adaptations
##ল
supplemental
##sas
##aina
##φ
fins
correspondence
triggering
pair
##cy
##corp
##tip
enhance
512
##葉
##combe
##ople
architect
##cca
1841
sizes
farmer
##rek
##anga
anger
##ters
i
premiere
encourage
murdoch
##missible
participants
##pen
ventures
researcher
##economic
ore
collar
returning
н
salim
switch
case
quickly
##ural
##eis
j
##izan
pig
reservations
##55
increasingly
organisation
forces
##bial
ʋ
##date
considers
wheat
##ocation
consideration
##ᅴ
lee
felicity
drugs
neck
lexi
##uso
heated
comprehensive
島
##wart
##irus
archer
##qvist
##quisite
46
jays
chip
proposal
fail
ς
75
freaked
england
cecilia
##г
##giving
##ab
scan
rico
‡
examining
transcription
hollow
7th
harvard
cobra
gray
##iae
ッ
##δ
cup
sits
##lum
crash
wanna
##lang
securities
##lite
telescope
2015
palace
会
##vr
##mir
alta
stopping
##chal
ec
19
##stov
།
minor
##ල
forget
875
denise
removal
alexandre
broker
disruption
compliance
##"
##se
##open
fuel
##ication
analysts
causing
##sia
##lau
##¬
ars
char
##oche
ᵗ
1777
##ula
clerk
rowland
exhibition
ী
thousands
##git
bureau
collections
『
য
scoring
departing
mason
baptist
##ibar
connell
very
fiber
studies
caesar
name
steer
kickoff
perfectly
neighbor
gang
rating
##vel
##hiro
##chus
goals
##sca
tin
hove
solar
characters
obligations
1959
##eb
ctv
chavez
##ret
bn
nodes
traverse
competition
regal
##uis
1941
##н
highest
algae
larger
loaf
below
shed
##tream
deposits
smile
bethel
alain
##haus
movement
##bry
##eh
financing
clad
##itte
pitch
chennai
dozens
breach
##oned
₩
ɣ
##rion
size
seemed
##pate
wash
rolf
anastasia
##mei
##nea
leaking
circle
##⺩
integrated
##s
##mouth
dallas
##roy
calder
##leen
protector
col
ん
chill
capturing
gan
for
##ท
springs
quentin
province
hayes
como
gap
transfers
rhythmic
apparently
drawings
jia
ferrari
bearing
value
##龸
##tam
maintenance
ي
ბ
##ifies
accepting
त
##“
##redo
opponents
reading
some
copper
understood
viktor
##ণ
looking
225
print
posed
##cken
pink
subtly
##azi
fiction
和
nude
##kal
ib
bucket
liza
secured
morale
motorway
wits
jacobs
flag
returns
##ogenic
zebra
##@
promised
yuan
##rb
##ages
199
₉
20s
##oco
ceremonial
before
sections
##八
##ন
merchandise
entity
argue
##aan
##nah
228
thematic
¤
spring
freed
loyalty
elsa
##san
ceramics
263
ŋ
##ք
rest
passengers
##(
chamber
honest
##ddle
##iti
fein
ホ
bite
advisor
groundbreaking
leland
psi
##ов
manually
##n
phi
##cula
章
##ena
spiritual
associate
originals
anna
draw
breath
ltd
##家
hopeful
language
transparency
##nov
procurement
nathaniel
cover
##dc
chihuahua
seller
##fication
description
##active
enrichment
ق
##ц
kenneth
navigation
drives
meta
special
algorithm
##kee
turk
##tland
compared
genre
evident
##inal
plasma
randall
bicycle
##☆
##cit
##ake
##writing
צ
shift
##gins
turbines
christina
celebrates
##q
##aling
borrowed
##ec
settled
talents
raid
liked
##ᵍ
capabilities
seeing
##sl
##ducted
1772
was
gabe
russia
心
##ₖ
flats
##bana
children
funk
celebrating
recommend
node
##isto
##ˈ
slack
manner
sant
honestly
cnn
ama
##♯
れ
##pts
##東
ᶠ
intra
marty
##let
##bino
##区
36
desk
duty
participating
everybody
guarantees
##jevic
1987
lois
vivid
relief
della
montreal
##kas
drought
134
##eding
motor
material
wireless
loved
##ɕ
dover
listener
proposals
luther
extras
hub
ट
##physics
carry
decor
sharing
##ring
barge
296
facto
よ
bc
##ᵀ
christ
##pani
119
schultz
kings
pointer
blaming
ref
bouquet
laval
th
##ize
modular
##maid
##sos
minerva
loops
nights
josiah
##orra
plains
charged
##fted
ᄇ
billings
maturity
nutrition
##rata
residences
muscular
strategic
details
brest
##定
title
##ش
holding
##mot
usually
figure
steel
##till
canyon
causeway
##urs
212
tale
##rts
##diment
sc
ave
minors
##rsten
paths
acceleration
roots
##cial
surfaces
##xing
elect
c
blacks
spence
commissioning
drivers
password
##arm
ვ
##ן
mei
steep
false
retention
revolving
company
華
vibrant
##mur
1834
mile
nikola
##ক
guard
都
presidency
##ucci
##fies
grange
spanning
insist
massage
tug
1958
##ional
sense
instantly
flores
rc
totally
concepcion
appointment
booking
virgin
1859
coleman
宮
wrocław
harmon
rashid
flip
evenings
352
jumps
犬
maker
iv
##joy
rats
voyages
##mun
wonders
mika
descriptions
preservation
phrase
##⽥
advisory
rejoin
remembering
dumb
conner
ɐ
sonora
swift
adoption
estimated
easiest
correct
ce
assessing
##sp
戸
521
protects
stride
juice
metropolitan
relaxed
¥
employees
##rang
violence
##sse
toss
halle
caden
pia
waldo
winners
1848
cane
iteration
##uz
gps
##rka
seasoned
touch
initially
1604
##law
1560
noticeable
¿
道
paris
offs
##lved
itself
aires
da
##nar
shy
sk
##card
preparing
ain
##cable
##kar
149
##kong
stock
generates
##oss
crucial
##39
giro
digits
patty
##zine
babe
ham
##us
palette
framework
mae
bun
示
sets
gran
##db
taxes
yep
ض
##dot
thought
##free
formerly
caste
kick
##rling
##lock
flight
az
248
vessels
##je
rune
shelters
##tton
monterrey
generation
del
##isches
##ify
##wny
investing
##dek
bessie
xl
050
pan
abbott
siena
styles
exam
reactions
vent
but
society
recalled
##ky
tau
kin
pak
##ھ
##uate
き
##gami
cicero
##uet
##ched
##borne
prison
societe
##bury
##ina
##tation
registers
gratitude
equal
derek
cheaper
participation
almost
domestic
1665
##ply
uv
happening
contributor
live
disco
sargent
tow
indicated
⁷
universidad
114
##sters
##recht
domes
bills
valued
printing
cumulative
##ych
uppsala
dealing
samuel
components
tehsil
力
##ey
capital
radar
limo
##bid
kuala
gerald
##aha
things
53
20th
eve
estimates
shareholder
adult
##ʐ
##ppe
hydra
##cke
せ
ryu
dice
parking
##ibility
##ram
##ryn
##tal
##fall
vis
civic
##los
canopy
##week
xu
##was
african
##ttal
recommended
violation
##onic
maxi
refuge
torre
flagship
races
heinrich
173
1653
##rke
##hair
##rman
##acker
pace
replacement
incentive
decision
publication
combine
##stellar
##gnan
##mous
pakistani
##lid
##meister
both
##27
experienced
##bain
treated
grace
##rwood
##arus
property
doris
द
pep
##ately
##sley
clothes
曲
##ka
speech
falling
dynamics
##llo
lord
guidelines
phone
hiram
：
alfonso
helen
1655
puzzle
slogan
##ida
abigail
modules
structured
##ᅦ
twitter
containing
martina
measuring
pits
faculty
bragg
mark
vicki
suv
leasing
paints
ξ
##ˢ
paulo
war
##pad
craftsman
##row
sound
##ghan
montane
elm
##landa
rappers
concert
mi
dustin
##sell
xvi
##an
bastion
ᵖ
##ms
rao
curtis
headquartered
յ
musee
##止
tucked
##wg
dent
49
##class
these
stress
businesses
sheng
schmidt
mar
tough
##ᄑ
integration
liege
☉
blocking
grande
republican
##ino
source
antonio
bulletin
loss
acid
demanding
##ー
hedge
alike
psychology
administration
diplomatic
##vite
##avian
four
stretch
chew
transit
principal
migrant
preferences
directors
1791
macy
winston
actors
china
##minate
##akes
##ψ
ass
##ential
##rut
##unas
fire
##ssa
tone
explain
scheme
##ter
bb
##llin
amber
blended
##lson
வ
##mark
33
1716
enhancement
painted
frey
##giri
##nig
effectiveness
1570
stove
gulp
pisa
renew
wouldn
exactly
universe
shanghai
johnston
impulse
joanna
##chuk
oz
shoreline
##氵
remington
##ddin
##林
lists
dixie
continually
deutschland
waterfall
daphne
parc
escape
arriving
lori
lex
technology
fleming
makeup
hacked
firing
wars
android
possibly
##gnon
linked
##tes
##bus
elders
yielded
gone
91
exhibited
##car
##lai
##ur
lingering
boots
conceptual
##bright
emerson
د
badge
briefing
edo
amc
##river
ת
##rove
dun
##og
##־
1883
##uses
##lini
##fide
angel
militants
reuben
##word
hospitality
strand
##シ
baja
dell
##hma
1638
##ʻ
duff
stem
∞
efforts
lissa
##sies
##lder
ن
conservative
jenkins
##fine
bat
ₖ
conditions
prevents
allah
excellence
masks
430
luciano
however
●
##ety
##ories
west
emmanuel
##hil
honey
invited
television
tyre
militias
aba
walden
administrators
iraq
hank
1893
considerable
resistance
##cic
##hin
cyril
civilian
partition
closure
teenager
##offs
wilderness
neighborhoods
promising
linguistic
1661
##lese
ル
tune
ł
jasmine
##★
patrol
unclear
##raus
chant
##ggy
expose
##tl
1624
##♠
1887
##iana
darius
##tian
put
tangled
enthusiastic
##王
keith
isolated
##kr
puts
##bner
coefficient
##uven
bella
moment
jews
##会
##چ
1801
divided
pea
fernando
coordinated
guillaume
##sson
dj
##ム
er
##dice
rudolph
##zzi
##ience
風
entrance
##ogo
##ban
aft
enterprise
grayson
sons
mantra
ljubljana
ceiling
addressed
##lly
##hd
lara
savanna
beautiful
hop
##llen
ա
country
collaborative
newest
boat
closest
investors
hilt
##rks
cobb
##lie
residing
spanish
last
jedi
seventy
audience
##rol
273
112
##nal
johannes
##otti
typical
duration
##sh
scientist
instructions
recession
region
detailed
lining
##lab
##李
all
acquired
tame
##shin
enforcement
1802
separated
##oma
##mour
right
##fat
scope
lynch
hunt
##●
tower
niccolo
##xt
shark
gathering
mars
farmhouse
##gles
ク
exploration
user
correctly
primate
104
jobs
resonance
lecture
finale
rye
owner
##ξ
##tions
##inen
copies
##eley
roughly
negative
nuclear
victims
vienna
uphold
cale
##ggs
beatrice
felicia
ভ
closes
internationally
vaccine
##dh
##taka
##თ
few
makes
sale
diet
orthodox
schools
generic
##э
carlo
bloom
##ய
##mel
fight
carrot
kun
inca
city
specimen
##enbach
visitors
陽
restoring
rf
bodies
completed
ア
intersection
silence
halls
##rrier
developing
##pose
pain
tub
micah
##bm
昭
municipality
ambassador
strike
smoothly
##neck
carole
625
##hon
bond
1630
##mos
hint
terms
motif
developments
rosie
##meral
forest
##ir
karl
##ander
project
##ore
gather
n
##hu
う
ر
featuring
lt
tommy
ga
1805
authorization
helsinki
douglas
treat
mentor
##rist
travers
rebecca
commanders
silent
仮
sec
oleg
chun
ro
button
happiness
slot
##0s
cartwright
জ
schemes
##kind
fitness
##女
##51
##ton
vice
organs
after
##ain
##お
nevada
##ales
someone
₈
pei
adaptive
induced
toy
norton
##mere
ecosystem
##ions
fathers
gunner
suitable
##code
alliance
##ffy
fifth
emily
brass
predicted
decorative
blanche
atp
##ault
legitimate
korean
##making
cards
removed
duties
homer
sl
##yas
o
parenting
jurgen
doe
æ
gained
1762
2020
##bet
光
##wo
tis
ric
inheritance
##eland
154
cache
time
stafford
mx
ɪ
authority
forming
magic
ھ
##itation
martha
clinic
towns
rim
plantation
chances
kingdom
collect
tying
##ism
overseas
brace
grimes
##fers
super
moi
stars
wes
177
signing
managers
benz
##ध
networking
colby
understand
～
thumb
pose
remove
interesting
cong
submitted
hotel
responses
##sal
message
##church
rack
schneider
medium
##tern
statutory
1981
orbit
##lund
cultures
民
rings
forgotten
jarrett
##wad
constructive
##onia
respondents
ul
78
fort
panda
##rave
157
##tures
##tum
conversation
##eurs
sherry
ecumenical
enrique
chico
lively
##ains
##ai
##aria
##lal
##+
##合
ping
full
##lash
##tr
appreciation
beatty
programme
coding
speaking
hammer
lds
##k
package
##ⁿ
derby
crowley
##zu
trusted
whom
sour
gatherings
soil
bridge
reserved
downtown
zee
802
positioning
ensured
lars
gaps
syn
dona
##zuki
mario
比
ether
communication
##ᄎ
##tus
##zh
##gre
##ove
##mm
imperial
restrictions
myth
79
shorter
judith
plato
slap
aragon
lilly
##tan
##ulator
##⊗
##し
##cars
མ
##ᵇ
##link
deals
##ence
##vana
strip
##ya
consulted
between
useful
##將
skye
commander
ی
tina
collector
158
single
panel
kota
circular
diamond
neal
moon
fuss
inlet
##dge
##sic
glucose
slides
view
position
sponsorship
ව
##vic
##land
dramatically
000
serves
crashed
##ches
significantly
##ovich
border
1992
lund
##tein
ר
remy
haji
flu
anyway
##lez
##placed
##dy
##ан
##folia
##version
workout
initials
restored
options
##gara
##）
countless
ling
beaver
##ume
din
champ
if
elle
ley
ranges
##md
##kes
##藤
paper
sis
somehow
107
minus
##ℓ
affiliation
jace
adrian
occur
arte
##ger
##flower
look
tree
¬
hundreds
##ikh
1860
precedent
##tt
fears
cindy
reduction
libyan
taking
##kla
twins
grocery
##sha
alaska
recording
##eli
##ク
##馬
##tra
composition
residual
jurist
##ias
ι
how
dominic
##rish
##kken
cross
rehabilitation
cook
##帝
broadcast
দ
##ᄏ
accidental
ellis
nas
merritt
grade
switching
##gn
bounce
秋
encounter
##tina
##arina
##eses
exhibit
hell
1819
##gra
ankle
really
transgender
##anger
##press
trail
penthouse
perspectives
tentative
##41
standard
task
marines
“
moses
arroyo
jena
electric
##ieg
ק
rutherford
richardson
holm
##sul
82
##ko
ণ
ernie
##₃
##rath
babu
as
asteroid
##村
rafael
absolute
aj
profession
examiner
md
##lic
amir
##hat
##vocation
kilometer
##vc
applied
expert
readiness
counseling
and
##ʂ
bailey
vol
pietro
automotive
timeline
believe
giovanni
স
disputes
395
さ
map
commencing
slated
##kari
double
premium
##urse
##rl
circuits
brow
##made
vermont
ivanov
bahn
ち
legendary
passion
pond
disagree
folder
ε
##ub
##lb
sabine
relate
pupil
need
cain
##ental
benito
##ship
groom
adjacent
bbc
czech
##of
garde
##elin
guide
canine
poet
ginger
##nge
radiation
##ound
gothic
devin
##vin
scrap
inherent
selections
sequence
carolyn
inviting
exhaust
oklahoma
dedication
stored
rainbow
tribunal
lace
##lk
##tos
dot
boyer
contractual
##ゆ
lil
under
shawn
590
pack
zodiac
##ler
##ner
1667
ni
nw
fabian
contacts
pets
daily
italian
ut
##force
##ม
fungi
stroll
charity
##urian
leisure
弘
##ᆨ
eric
projected
##yman
##raj
static
awesome
simeon
##pta
##॥
employed
区
united
nfc
1784
##bek
‘
1793
quantum
##cate
specialists
##than
##rma
##kell
##ย
olivier
##sw
museum
binary
discipline
##therapy
nico
north
bart
horizontal
##ˡ
periods
##ands
##erence
250
##oda
`
secure
heads
##松
worm
wrote
##カ
##reen
ப
misunderstanding
##iest
angle
##島
##bis
judd
？
kentucky
dam
takes
##ch
##nie
##iz
##4
merely
davidson
##inator
##fia
##lke
##⇄
ji
ক
cassie
1400
concern
newsletter
membership
beach
facilitated
tries
1875
##dent
shan
##bots
317
invasive
十
##ogy
jaya
precisely
ろ
##wave
rodrigo
candidates
grab
they
demographics
2a
puck
1550
##uity
196
busy
partly
silver
overlook
bernardino
##oder
##ario
##[
corporations
⅓
tx
##bbs
##trum
spent
flashlight
dickson
magnolia
8
pere
crowd
##be
breast
ann
1852
distributions
##有
rowe
dem
shots
##ym
politics
harbour
rash
mac
winner
##uan
clap
customers
yes
ה
array
regional
##რ
squad
lancaster
gall
##chester
administrative
hole
basement
thorn
nmi
abel
##dis
largely
salsa
##borg
australia
##hire
##。
ts
##kor
##ivate
champs
charter
1908
int
immune
inflation
##oit
##ᄋ
社
##bone
glow
voting
##iza
1960
##rner
##hli
×
##hos
grip
coordinator
problem
lp
gt
前
##忠
local
nebula
lad
choice
technicians
located
emphasizing
##urn
wadi
qur
kwan
mouth
eager
也
sebastian
procedural
blogger
lash
crimes
1641
##天
construction
##р
assembly
##25
##tri
є
##iver
ᄉ
parameter
shoot
hosted
brutal
##dalen
ₚ
##pd
reason
portfolio
arising
villa
atrium
長
compliant
¡
nightly
records
ring
1670
##pr
raleigh
machine
restraining
163
noon
##ort
shoe
##tub
forms
help
enchanted
garden
##zek
clary
archive
attacked
riverside
fountain
hum
hartman
differential
mla
152
##p
alberta
##tain
##vani
solutions
##xed
shaped
upcoming
##lco
)
denial
##法
issued
##ъ
##shaw
##py
readers
fifty
##ago
##shire
giving
edge
##kaya
##iac
1722
##о
protecting
pasta
忠
##eau
##llah
aux
##vira
excellent
##ulate
##rca
##hir
guests
bright
##sław
##nai
andres
packet
audiences
m3
##eborg
##uez
##vine
fond
shah
warnings
aesthetics
##oo
predictions
##ₛ
extreme
proceeding
##und
dug
##ste
##原
permitting
##ides
productivity
##‘
ש
era
vida
implementing
##54
georgetown
##nus
counties
frozen
##dini
images
reflects
donnelly
goes
stone
##bos
lost
amanda
engineered
heron
1986
1989
votes
74
know
dispute
pa
##ged
tim
lifted
lie
pursuing
ナ
boxes
depression
architectural
wishes
wed
lucian
appreciate
pacific
##lin
tenants
accused
maison
diaz
##ffle
hands
versus
jumped
##国
compiled
eventual
constantly
##ros
reverse
tay
maintains
##tsa
fascinating
wanda
ψ
##五
##lynn
wellington
dancers
##rich
brought
barns
printer
##room
##kshi
complexity
santa
##ivation
##won
remain
clare
trains
シ
142
##tery
##ulata
effects
##zai
mma
ⱼ
ᵇ
romance
43
partners
character
peer
narration
taps
⁹
petrol
contemporary
##bill
round
por
女
magistrate
foods
bones
virus
bey
forwards
voter
##war
gas
verify
jean
ie
##ನ
##cton
higher
emanuel
##rin
##秀
##ছ
stefan
frost
tuition
logical
##tail
truly
abandoned
concerning
same
bandwidth
assessments
rios
tennessee
##rn
―
officials
actively
##tat
ist
神
clarissa
##ull
ache
##orth
antonia
pierce
backs
submission
facial
edgar
rep
needing
##ᴮ
##iano
##lak
allan
protein
install
mil
friendship
court
sky
##ntation
prior
wearing
lister
empathy
##oun
failures
imported
ashley
##po
holden
technician
posterior
va
acknowledging
elisa
##:
##lla
morris
con
##疒
stanley
conflicting
competitor
##দ
tho
russ
ი
alternate
pressed
##▪
quoting
elena
##zza
tara
patrice
aka
joining
##sar
##mism
accountable
##min
##ming
##ᄂ
schuster
wi
chong
##lar
の
anterior
261
connected
strictly
appeals
##jo
newmarket
##ifier
ice
comprehension
##ifying
draining
fay
debut
japanese
receives
efficiently
##dee
##stadt
gu
transmit
jan
##29
heller
##的
samson
ह
##try
pale
##sea
jd
behavioral
ћ
cal
icon
##yya
trends
##ר
gilles
refreshing
gonzalez
musica
999
photographic
hasn
buster
venues
maintained
placement
bread
hail
##tung
##sher
islam
impressed
lease
charm
sisters
##年
##lho
##ru
##rro
broadband
##ica
belongs
##wer
##eal
joke
query
##ps
##岡
jakob
##–
wan
##ג
messing
dna
1711
london
##werk
hugh
xi
lang
gaul
##マ
borrowing
education
##ᆸ
intel
kat
arias
pharmaceutical
arches
##fe
##sin
##rret
zoo
mt
##olf
okay
cave
muster
spencer
independent
##22
administrator
##cam
nate
stale
##arte
##idge
sharma
##ne
##ox
regarding
ash
screwed
hull
soaring
evaluated
theft
bath
more
killing
##»
rainforest
quartet
内
sufficient
nyu
##sive
greeting
compassion
1863
##十
##義
drafting
portion
romans
explanation
decided
335
powers
versions
rusty
fries
constantin
progress
##安
##uca
nowhere
wallis
岡
##ten
1829
afghan
montpellier
advisors
##უ
##戦
prescription
mortal
##cise
ship
omitted
esther
##ador
##bery
ponder
libretto
manuscript
rainy
gag
juris
##rama
limb
cummings
##,
##zan
##bilities
interference
happy
expression
wit
##ʸ
##rent
##a1
proficiency
##タ
torn
reno
concord
fat
nair
rus
aerodynamic
hopefully
##rkin
engineers
kan
shot
hc
22nd
nail
seaside
##ᴵ
tape
sultan
安
queue
##kra
angelo
sophie
conductor
##fi
##eric
incoming
##endez
astro
##air
nino
finding
##gc
letters
typing
tours
scattered
##lion
careers
sole
figures
##tch
marcia
lawyers
clicking
ᄒ
yet
catalyst
⺼
claims
vehicles
hinges
angola
##lley
##ably
##cian
##berto
door
₹
##osis
aarhus
differ
##back
##nostic
raven
appeal
lack
multi
politically
responsible
##tama
ս
conflicts
##olar
matched
agrees
1753
##ր
banks
defeat
clearly
##por
##dog
modeling
##hta
地
##gration
##zo
egypt
scanning
consecutive
##ₑ
##nism
from
estrada
1844
##mide
apparel
numb
graph
ml
##ahu
handled
##lord
garrett
fine
signs
genera
##hima
locks
sigma
gunter
cis
you
chateau
antony
ร
lending
##endra
traveled
⅔
##ffa
##ische
##viere
dried
timeless
cs
##plate
bigger
##owe
ᅦ
vineyard
preserve
##iary
callie
clearance
sends
mecca
##suke
accessed
waterfront
atm
fees
##rogen
ratio
brows
hindi
##tem
eligible
bomb
open
კ
##kat
winfield
##use
infectious
germain
coincide
∆
311
occurs
soto
tab
nutrient
ernest
valle
ignacio
##cene
gunther
shop
monitors
folks
fernandez
program
sit
enforced
shelby
indication
##yp
len
shirt
suggesting
pl
jug
336
ah
real
cardiovascular
website
knowledge
…
john
freight
##ules
##loh
京
cm
##ம
convoy
##<
##dia
passport
þ
ix
shri
##emy
amend
##lden
orleans
recipes
##ج
orders
formal
ャ
disorder
queen
##dran
##52
handy
##ː
everyone
focused
##এ
##vara
shin
postponed
##bourne
wake
##⟩
ʌ
亻
bennett
evening
packing
projections
₊
processes
lawson
##lp
prevailing
##chia
commence
1738
aviv
dreams
##pg
absence
loki
iowa
etienne
ல
swear
resides
89
chen
blackberry
bremen
##ken
require
moth
sega
slang
##quet
boyd
labeling
had
本
highland
travelers
’
vladimir
horrible
fix
han
basic
dante
canadian
1961
rally
##orro
monitoring
burger
1890
mom
##ua
civilians
##dm
troll
อ
newer
##abe
##ŋ
##ndi
etat
##pet
oxygen
critic
differently
##ush
720
bitter
##け
rather
##ists
hussein
明
lane
##₤
ন
weather
elizabeth
ssr
victorian
badges
##uc
supplier
⁶
fed
preventing
##zic
guest
mentioned
tackle
palestinian
formed
families
involving
perceived
110
##tya
##া
am
acceptable
sunny
lukas
spotting
developed
educational
send
skilled
##ʉ
##ados
##rip
spain
moose
ba
prescribed
complex
reaches
compression
##lander
##yana
##ska
girl
reserve
corresponding
##ht
ₕ
boston
honorable
mail
interventions
##48
gregor
－
ale
##rer
also
perspective
ease
vibe
maybe
colleague
isabella
harris
proof
distributed
libre
composite
organizes
surprised
needed
##₉
patience
ᅪ
##itative
setup
caleb
qin
##‚
lesley
island
ふ
rat
br
##ಾ
liberty
մ
##発
drafted
voice
hearings
1625
unusually
rosa
roommate
##vard
##resses
nomination
##iling
petra
##chang
either
angry
##∅
##ries
ロ
##cts
stacked
product
##ld
bags
york
cuisine
##icle
coal
fabrication
##iciencies
##amy
lady
dalton
saw
colours
1877
##ssel
##time
64
washing
astronaut
pun
owen
##λ
veteran
due
##巿
rights
mechanic
प
galactic
visions
missions
320
##lard
passages
jameson
rs
ames
主
looming
collection
cola
consult
prom
##?
lux
##hui
privileges
##rigue
low
decade
##mps
core
taxpayer
hudson
##य
pioneering
freeman
leopold
##ury
travellers
superior
moderator
fauna
continuous
maynard
hawker
##ce
acceptance
##iente
xander
stain
auditor
ruth
showed
jumping
##ney
carr
composer
mel
champagne
##uting
molina
journals
emission
hansen
##mers
bai
baker
##wara
marian
clair
##app
lit
plant
healing
please
##rug
##cona
ruby
lopez
clay
cleanup
penang
##js
ranking
##nne
clouds
biggest
##raphic
coordinate
maha
noble
credible
##hine
get
pioneer
kobe
af
mediation
fragrance
2
skin
best
raised
1984
podium
##國
##ples
land
accurately
fear
conde
wow
ta
listings
nerve
##scribe
##ments
campo
poem
knowing
318
##lter
უ
州
falcon
occurring
toxic
##oon
jay
sentence
landlord
##♭
contact
##sworth
bathing
##elle
referendum
tech
bass
procedures
laughter
tre
included
assigns
billing
gave
essential
##nding
##ucher
##tv
six
cancellation
starter
registered
267
inter
##iculate
quantity
confusing
ʔ
1826
##atus
whisper
jase
examine
harassment
cdc
##&
##yra
johns
gloss
generally
discarded
paired
##ե
loire
п
utilized
await
figured
tallinn
chicago
##hari
nominee
##burgh
responsibility
zac
labyrinth
maxwell
wide
##=
kato
interpretation
won
##you
vista
compound
archibald
evans
rd
kade
contracts
guns
¹
tricks
pluto
##ans
dex
##croft
illustrate
apex
account
##男
##rates
lastly
##itas
mons
bradley
visit
mag
##ץ
##am
##ave
ecosystems
##sa
##ika
temporal
approximate
cher
managing
##ell
dialects
italia
worker
filming
grounds
##vili
##bird
##ط
grains
prompting
emergency
##rank
witnessed
podcast
14
blog
villages
johan
blending
another
##sko
load
rabbi
king
johor
##dder
station
automated
##br
access
oversee
sketches
##愛
ے
kc
jem
weiss
secretariat
flash
adverse
##orf
probability
metallic
knee
nets
crossing
##sford
debt
01
cambridge
postal
##ი
##scan
vi
jacques
expressing
##ers
app
peoples
##¹
feed
investigate
incidence
№
allows
operating
reaction
高
detained
his
trial
positive
capable
short
spreading
d
գ
##keeper
performed
coin
1806
##iot
##top
replica
enhanced
##ffie
##icio
61
motivation
deed
##fying
ᵈ
ʲ
fleeting
financial
##gs
##ipes
tourists
##pile
slaughter
leader
##tone
##yang
1683
##ـ
treatment
##口
##rrado
los
mercedes
klan
chao
reclamation
(
##ata
##had
sensory
carolina
spell
ل
foot
ruin
organizers
##sol
rational
##ன
980
unfortunately
creators
ordinary
serb
1991
bell
kinetic
##ulo
##swell
instability
volumes
##ption
，
alex
1878
ɕ
stage
##band
shades
central
##cope
##mite
lush
##lux
faces
lime
down
bay
##rgan
circulating
ch
##lah
mari
depend
change
ramos
##hand
##pie
pressures
support
weigh
haitian
sonya
damp
##ł
ı
cass
maid
##uri
tangent
asthma
1100
star
aide
provisional
accredited
routing
jocelyn
views
novella
reminds
struck
annabelle
sharp
##wyn
doll
##aran
levi
##lett
リ
feb
acre
nationwide
knows
awarded
frontal
dentist
light
tide
unchanged
₄
consist
suspicious
##フ
colleagues
##wa
uc
reduce
granting
生
hourly
##tze
backed
findings
socio
##elles
visas
##aks
forum
willard
258
##wood
##rate
vance
fanny
##uj
cree
forth
alberto
##urrent
synthetic
##oning
##yed
evaluation
castle
nitrogen
740
##acy
quoted
##fied
basel
##gina
flexible
seven
airport
levin
##|
dee
##jit
##eme
injured
mornings
417
kam
emi
stream
borders
##tting
##श
##sboro
1969
raoul
carleton
sammy
doing
chester
refrain
mine
malone
rushing
ར
independence
##ɛ
##ds
markets
##bler
told
jessica
☆
unlike
##hdi
##fen
##nin
##erland
##pu
activities
1751
necessity
earlier
##eka
diagnostic
##ᵐ
1745
explores
##fera
1580
marsh
activate
overlooked
254
sd
officer
##aid
leash
showcase
##º
shock
pressure
duck
##oll
cousin
zagreb
cinematic
##rence
##can
woo
##aya
meaning
tank
night
buttons
##ว
krishna
##erre
ind
##rissa
huron
##uba
wife
##永
##rcle
pueblo
packets
dolly
##poo
##ez
isle
1708
##boot
##sant
experiences
lots
premises
gasp
buena
中
##ksha
levels
judicial
##dhi
##xton
foyer
restrict
anime
spikes
cho
kicks
tam
auguste
add
athletes
appetite
##地
lieu
##yuan
artifact
priced
repeated
##х
m²
##rley
##ogen
upset
fry
ª
reproduce
sh
creativity
##vsky
jarvis
governmental
ing
321
professional
thick
##·
tube
kirk
theory
rick
limitations
quay
death
cat
##entes
alexis
marek
め
家
dictator
temperatures
news
gail
philosophy
saving
##kon
fallen
summarized
€
biomass
cushion
savannah
initiative
1642
##eet
mix
##icia
divert
defense
lincoln
ʳ
##›
##ou
##hus
ancestors
loco
enabled
substantial
interim
target
neural
mca
liability
tanks
ব
almeida
##idia
spun
lai
tabitha
#
honduras
ea
##小
poor
##isation
##od
dorian
##kiewicz
rec
metal
opera
form
kindly
overall
guiding
afi
receive
catalogue
tons
strengths
##一
delaney
##her
[
frame
organizer
fragments
hazards
patriarch
##ett
betsy
lunch
オ
ancestry
accents
regeneration
mary
experimentation
##ड
conservation
ivan
phyllis
sanford
aims
##dies
gifts
highlight
implement
##æ
govern
##ж
##？
##amen
universite
opt
1654
identifying
eugene
turbo
zones
angela
virtual
##box
kenton
ru
blood
demonstrations
kira
116
ui
golf
##nikov
sailing
brown
unemployed
##yde
##ente
##ტ
##enna
forte
##olis
##mobile
168
arcade
ao
events
concerns
systematic
partnerships
##cchi
##dle
fighters
footprint
autonomous
verb
plastics
##coll
##jal
fai
##ब
##ut
##rzy
journalist
id
haiti
cebu
void
camden
trademark
cafes
newark
reilly
closer
unused
departure
maya
cot
空
biologist
sydney
branch
harm
jaime
breeding
boot
見
ニ
##lide
ᄋ
##lice
sedan
marin
司
issuing
yue
##lva
provisions
vc
drove
##truct
committed
##sor
##rix
訁
tobacco
##rc
sectors
›
portable
nicholas
marvel
aimed
rana
lemon
emil
vin
accounting
##bson
ᄂ
##rra
!
appealing
carmel
yank
daughter
bon
commitments
transactions
##心
##gaard
mare
consisting
##art
premier
##₅
burden
losing
bonfire
lo
2006
excessive
avoiding
syed
sins
##deh
ɨ
erica
hr
##ය
##utz
brazilian
kai
zoe
425
infused
##ws
1818
##graphy
1947
erwin
ot
anita
info
1692
bolt
shopping
injection
##zier
jennings
##bib
##gler
expenditure
spies
claudio
guise
ngo
##ition
135
loaded
hulk
astrid
w
1792
1715
hash
somebody
##gon
pride
armed
pressing
##sper
daly
oliver
pali
kia
1939
scanner
39
exceeds
##vir
paw
##st
##jan
ultimately
139
##igen
schwarz
##ivating
goodwill
raising
jp
updated
b1
gunnar
##tsk
february
female
video
1835
143
##ype
cosmos
や
drew
guilty
##uld
traveller
observes
front
laboratory
1979
artist
##面
##enes
egg
##木
##omics
weeks
taste
##imate
air
employer
д
elite
parliamentary
irving
favor
##aa
winnipeg
scales
lent
##ingham
reynolds
je
sherwood
young
rise
meetings
simulation
attitudes
##tov
nah
elf
qualifications
##eous
1787
limiting
possible
##ular
wedding
##¨
cinema
turnpike
tribal
employee
##rva
05
prompted
benson
mori
##uke
##文
residence
motivated
roland
suspension
crews
1759
rejected
reds
gets
gabrielle
##dly
memorial
griffin
worries
enjoys
avatar
##צ
regulation
##neuve
##thermal
ᴮ
csa
##mart
cast
operas
##igate
innovative
##nded
capt
##emia
part
mart
##ergy
ravi
advances
##cine
sunset
ideas
##dson
normal
##ota
rudy
back
tile
syria
geologic
maru
##efe
##chev
imposed
cottage
1928
##hesion
eh
##inho
ministry
deny
##ত
bishop
bryn
reinforcement
creditors
え
pier
formations
##trip
##ी
##tish
edible
construct
revealed
banking
pamela
##iner
##⁵
ム
##rai
spare
pops
bled
sued
til
later
##sta
latin
canon
humor
##urg
lombard
sharon
vote
##fish
hannah
romania
inspector
##ɑ
linger
montana
carlos
11
suffer
population
220
shall
fontana
dev
tools
men
##ivity
##†
direction
reggie
demons
stimulus
##sef
molecular
beauty
labor
wrecked
275
patsy
##ibe
rake
respecting
systemic
##8
band
turkey
##ausen
ford
##tai
departments
ends
emerging
suggestion
graduated
gloucester
arthritis
##ᄉ
outlook
cases
hers
##ₒ
mixing
##oi
dong
cortes
##laid
##ckle
caused
##ae
268
iraqi
stein
##vao
ville
##ւ
##κ
blackout
##rock
promptly
canvas
chronicles
##rade
lip
##pi
inauguration
osborne
281
guadalupe
##ו
##ination
beau
1869
guardians
1884
meals
350
љ
##emon
hadn
classified
surgical
1786
series
##ь
boom
##bridge
therapist
null
##station
##hala
##zam
##hone
attend
stellar
##ng
ර
park
2000
##une
將
##nese
basalt
##iga
##cking
##dine
dl
agents
joshua
〉
drainage
##⊕
advise
theodor
throw
dmitri
empire
pick
police
illness
budapest
ා
##≡
re
woods
freeze
1650
owe
signed
##chon
##tite
ம
label
##hed
laurel
freaking
end
editorial
##kala
02
##igan
##ons
##19
elder
therese
1628
book
##dna
authorized
investments
1988
##chenko
##ᵃ
texture
ウ
##entation
##dation
sketch
katz
historical
conclude
##tori
##kti
safeguard
##tech
taken
##gal
fragile
ほ
puff
proceed
vacation
communities
lego
table
administered
torch
501
lawn
stretching
27th
results
85
##day
mahal
interview
which
ky
people
##®
holt
1917
ahmad
ab
britney
chin
ares
ᅮ
##wr
combat
trinity
hen
renovation
unexpected
saturday
recycled
fray
##ical
##ip
coli
vessel
®
distribution
##aru
lasts
responding
331
approx
chaired
##naud
wanting
madeleine
managerial
everett
##onale
570
tones
through
wildlife
360
good
1705
##in
tie
94
physically
##mation
yd
##fm
territorial
wheel
newspaper
titus
tong
persona
brighton
photos
##प
##dah
##ott
##ear
starting
դ
warning
sanchez
letter
kansas
##lled
ך
semester
jaipur
attended
prince
fatima
liquid
cause
##nob
microsoft
mohammad
declared
clothing
##stone
##tto
დ
356
hypothesis
##oping
caine
nov
amazing
receptor
tristan
##lland
dod
extraordinary
junior
navigate
insurance
cullen
explicit
##mes
ල
##lay
dei
##т
negro
337
1930
##田
bane
1934
##walk
auditory
rail
decent
bhp
##mber
1635
lucky
affair
burr
health
products
nearby
breakout
322
encouraging
plans
##陽
raul
vega
mk
क
france
##osta
##des
##ings
artificial
##holders
wider
handel
screen
innovation
cao
andreas
pairs
mach
madeira
stems
doin
ceremony
complete
arab
##子
parody
aspect
##場
blanco
cousins
##eri
##sari
##風
##vat
##anal
##man
bitten
##թ
desired
submit
##any
moderate
ب
490
##pf
retro
##av
##for
messed
##building
courthouse
present
divorced
defence
distant
stud
y
##hausen
elsewhere
capacity
secrets
aside
headache
rhythm
sports
cores
##hn
checkpoint
##yst
##ssee
practices
cathy
reasons
porto
might
##kko
vase
nicole
##rbin
myrtle
##zcz
dove
negotiating
##hs
yves
valve
##ridge
##ই
##ᅪ
stade
##ₓ
security
##mony
nation
other
ᆫ
##vision
al
yemen
##aster
leverage
##nami
knit
hs
ₙ
280
preserved
marjorie
sino
##tort
roasted
sf
sequencing
workshop
total
assets
sabah
cyrus
ʑ
ং
##ecin
mba
bela
appreciated
jose
##ek
##thus
##icide
ganga
trevor
₤
##sdale
controversial
##久
##pw
hadley
政
##bn
##龍
accord
coincidence
ね
organising
ヘ
xml
advice
il
examined
tomorrow
ᵉ
##esh
st
usl
##ux
##ito
白
centers
drake
guessing
virtually
robbie
##gny
pursue
attends
ourselves
##rda
negotiations
##thic
embroidered
applications
##cion
bethany
rb
deposited
occupational
##pse
salamanca
transformation
rochelle
inactive
freezing
ligue
million
amount
cop
analyst
amsterdam
cube
targets
1651
##night
##rs
##point
sources
##ischen
##tino
sm
##roid
evangelist
scholarship
忄
##oris
1807
donnie
failing
accordance
smaller
salvage
complain
vince
ode
mastery
botanic
##さ
##tea
fell
wardrobe
lineup
##ther
youtube
##meyer
landing
bangladesh
correction
suspended
kelly
##pha
##sner
locating
faux
stab
##eem
downloadable
maine
conditional
entry
##ulu
wiped
##智
hills
##dae
##ress
sorting
nile
questioning
##eller
##lves
blanca
walking
##ctions
beloved
legitimacy
不
buzz
lan
reflected
##ines
academy
our
surprising
emma
##lein
congratulations
##torium
ruining
72
stamp
ɾ
repository
take
speaker
expenditures
owes
giacomo
##史
sought
exports
carried
##त
easter
luis
1811
episodes
##dav
291
व
grew
shadow
convert
##dun
##fed
trieste
vacuum
embassy
passage
learning
sounding
##do
implemented
engage
transportation
##nan
intelligence
appropriations
trafficking
kay
specific
##pes
│
##yah
farms
meyer
catching
paying
investigation
##ima
costs
journal
manga
hardy
survey
##ト
philipp
accelerate
attack
drain
##ɡ
##insky
execution
baroque
resin
##↦
vendors
party
alpine
conform
borrow
legally
oceanic
306
##kura
millennia
greece
eel
##koto
##rno
choosing
olympia
400
century
##raße
act
mixes
situations
keys
##%
264
##ston
##psy
behalf
digit
genetics
##lette
novel
##ties
##ised
dusk
hurry
howell
rural
kevin
easton
##eres
##pon
plume
drinking
##dents
も
burn
anticipated
hubert
nuevo
indirect
sinn
dye
##rot
##belle
##sund
1773
##lei
##皇
##sfield
₆
pairing
built
##one
choreography
worth
caring
religion
##hia
##sov
pray
##ந
director
iss
lewis
veterans
chat
246
ட
healthy
frequency
arms
##dicate
1640
colour
combination
corbin
team
##tao
deployed
reservoir
194
nape
##₈
##ror
500
##some
##codes
001
##mx
sb
simulate
settlement
##lo
rifles
##₹
##ammed
routes
lambert
##lia
##metry
doha
merchant
handling
rape
admissions
##jima
distance
##bruck
##×
online
juno
toilet
##izer
##dev
memoir
rejection
##dating
60
##北
⇄
mojo
##yt
average
##ashi
inscription
##rdon
digitally
grin
ة
dave
軍
mahmoud
yeah
##les
apollo
sugar
discoveries
##page
##≥
191
h
acc
##tative
ari
believes
mont
titles
nagar
##ⱼ
mahmud
unsure
##iah
##dion
leaked
##com
##cend
yard
##sum
ত
cellar
correspondent
##uron
##wat
##ħ
##eville
##ᵥ
begin
て
##mate
protective
1732
substantive
umm
##0
pleased
strategy
clarify
notable
##upt
##rk
victim
annette
wien
talked
reviewed
winchester
gal
ध
multiple
barn
caroline
##良
iranian
cites
##ка
cn
magnetic
ein
##zuka
sanctuary
upon
##و
urging
origins
thirty
heavy
birthday
##mura
twin
goth
approaches
recipient
jo
oversaw
principle
##rked
##ont
bud
ju
##郡
deeper
##ʑ
medical
##bon
57
1932
bae
##dian
##itan
forge
aids
##orno
belonging
井
straightforward
addresses
##amina
cheyenne
brooke
##rco
doubt
advantage
##pc
##^
##ara
##erate
##rated
##bach
voyage
decree
foam
fits
nonprofit
brings
野
##下
haze
##lma
rees
comparison
##ment
1658
onward
##ต
295
incident
palm
zach
threatened
risen
##ango
indicating
artwork
multinational
lear
##oslav
##enko
##ு
northern
##hong
fourteen
##suit
altar
commodities
##bf
portugal
herbs
skate
portland
huh
apt
goods
approval
nearest
endless
dependency
spontaneous
ferry
##note
referencing
##fire
##ations
collaborate
##rued
improves
ᄆ
##inus
##tf
hug
##oz
jill
##lick
wong
cheltenham
primary
regards
##tius
lulu
primarily
##felt
rave
##¢
##間
transformed
supervision
pools
256
##rned
##ᄇ
blame
expectations
codex
sharply
identifies
##2
##cock
84
garage
œ
split
##ʰ
ely
##भ
##nn
sparta
pointing
song
mineral
##za
##/
experimental
strings
modest
ding
郎
##tlement
##makers
marta
fabrics
ˢ
1a
celia
2500
##ject
##ys
tablet
holder
chronicle
sousa
=
citrus
brendan
##inium
千
piss
sewing
2009
chichester
##del
richmond
wants
elliott
alter
kettle
ashok
##lto
niece
##uchi
mig
##書
grille
rosemary
flooded
spectral
emotion
1682
isolation
113
teatro
fred
##ɣ
##play
325
tanya
charging
貝
##uru
gravel
##tson
ʸ
hatch
dart
##shi
##rew
examines
closed
rubin
##las
inaccurate
witness
##uze
##hum
receptionist
原
##ted
gavin
diffusion
serum
colombian
##lands
##ole
threat
improve
arjun
vera
##gf
allie
##镇
badly
uh
##poulos
realism
jared
medici
taxi
##相
requirement
##lton
bone
welfare
or
vents
##م
colton
1827
cuff
##loe
##kk
dive
stops
##may
developers
##avio
supporter
ぬ
perceptions
##bit
interest
spruce
##yar
hire
##ל
lim
ರ
##lling
##春
##ices
ahead
大
##tania
230
##pura
##ril
⁻
opens
288
1945
substitute
notation
orchestra
##rier
thinking
08
liv
irregular
rod
##onus
classification
mora
accepted
dealt
##hly
countryside
fest
##ʲ
309
820
major
salaries
overlap
doc
bonnet
cheryl
genie
such
disability
involve
adviser
volcano
ci
temps
antagonist
cabinet
##dden
throughout
##nas
christy
##tsu
kris
michigan
##bility
documentary
guinea
event
changes
truth
ensure
coaching
turner
next
##jet
56
comb
₎
##cio
soft
barrier
passed
kn
reef
otto
tire
1963
arrival
relationships
##ware
outlined
gunn
paul
bianca
exit
sunderland
branded
wilbur
##gu
programmes
helping
uniform
##ß
ᵀ
alam
spp
##lase
##iad
tasting
literary
pulls
address
##ologies
successive
##fa
mort
compromise
323
lavender
##well
draws
##etto
bautista
##華
mumbai
crook
terence
##anor
prominent
wages
audition
##64
##unes
chapter
##kawa
##yd
##nc
nuts
chest
boys
resulted
##hm
sergio
forcing
slab
taylor
mission
##tura
##gee
pm
sediment
continents
advancing
tags
shares
##eit
tko
bono
##gne
correspond
accountability
paint
edison
polar
##ares
monitored
##ن
taluka
##cape
##xx
30th
confusion
papers
##bbe
euro
contribute
ohio
##ok
pension
♣
cloud
bits
applies
applying
∇
progression
tom
97
##nsis
alicia
##ever
so
buy
sal
namely
enable
##ni
jennie
engineering
renaissance
crashing
allowing
##garh
^
##uf
onboard
pry
exchanges
##awan
curb
##rator
青
277
##wig
germany
##eld
##bine
##ˤ
offered
outline
##ctic
##obe
coordinates
added
##ology
##ב
bet
##ense
owned
flawless
sasha
##ʒ
##rgeon
come
opening
investment
surpassing
album
mode
suggests
rebuilding
##keeping
1943
##orough
increasing
nicolas
愛
reminder
##glia
placing
simpson
##nting
dharma
email
myra
spots
acoustic
##sat
meadow
petite
francis
##ent
logistics
shay
ships
##ule
imperative
##uk
outstanding
newell
islamic
jaw
arguing
amendments
dropped
pepper
##lts
colorado
presley
##ray
futuristic
harley
discussed
##ट
##r
2nd
leaving
alley
##gen
govt
1900
philippe
urban
dana
##old
|
signature
hyderabad
世
unlimited
throwing
antigua
cryptic
commission
genealogy
damaged
##helm
yelling
attorney
##dic
lungs
exclusion
mushroom
loyal
止
bk
delighted
retrospective
fairly
finnish
neighbourhood
notebook
vinnie
hackett
##roud
installations
art
protagonist
familiar
##atz
facilities
herr
aluminium
fired
1906
##rites
##ria
清
movements
jefferson
1812
xii
《
henderson
banner
##bara
palmer
##valent
uno
proves
##eil
estonia
points
ur
##mill
implicit
sunlight
among
demo
darryl
achieving
27
helm
affected
##ill
leicester
persist
complicated
ₑ
ᄎ
workshops
donations
ransom
chants
beverage
##18
##run
ending
<
interruption
want
##ry
genevieve
audi
format
##幸
sarajevo
agencies
pulled
184
zane
ե
dc
assurance
produce
1702
demos
concurrent
##tha
executive
commemorative
##ก
##vos
two
generate
oldham
certainly
consumer
partially
mohamed
rolling
andrei
demonstrating
##fast
fails
mayor
corn
minded
names
##№
oath
・
scout
plot
##vot
nine
captured
abandon
primera
nguyen
fey
medications
standards
##gos
pleasant
isabelle
##ama
dialogue
strain
als
adler
##dner
elias
##坂
encouraged
##su
disclosure
role
trails
scheduling
1854
counterpart
##事
athena
##sc
‿
established
mention
afl
settle
jess
keller
arya
tells
##ᵉ
honourable
150
##ection
hard
21st
observatory
stew
compelling
magna
chemistry
##udence
##─
stump
websites
phrases
filing
##finder
##cci
indications
arabia
obtaining
ops
allison
॥
##phile
nsa
heroes
encouragement
##wei
metz
fabio
##tters
##crest
regard
ernst
promote
##och
cpi
antoine
##kumar
monica
##lass
verona
visits
##こ
visiting
similarly
ill
delegate
##amo
alive
##no
kazan
containment
free
ј
##iec
asha
southern
sato
judah
##oria
eye
cares
brooklyn
locals
protege
doors
##kha
wrong
ก
##ught
forums
同
fixed
anderson
prohibited
2016
suffering
world
##ency
belongings
jonas
beat
##bria
##ary
stevens
preparation
legion
##郎
##80
registry
observe
realistic
ж
evaluating
##yx
##rain
##atal
aa
130
##њ
neighborhood
##rill
marginal
jozef
ballet
##logue
##lat
1833
ъ
1925
leo
jerk
##ak
spark
fragment
shadows
355
yoo
storytelling
neo
flora
##kian
kate
wired
##rson
##block
##wang
apprentice
licence
fist
anton
commencement
condom
anchorage
market
আ
224
##ady
train
dario
emissions
##caster
crafts
dollar
##udes
1603
e
rust
κ
them
programming
aquarium
durable
evolution
president
##↑
sob
##ע
ケ
eddie
cellular
ak
1866
##gua
anthony
horace
daisy
328
chocolate
ð
installment
riot
1795
bam
struggle
bing
nesting
##shah
mentioning
lunar
background
writer
happens
intelligent
wage
general
depth
##cd
pee
packs
immediate
altitude
##rok
1888
martinez
until
##ssar
##ᵖ
edited
choi
1612
operational
catalina
faso
blaze
gum
sitting
focusing
##test
##cite
incorporation
reinforce
##ல
courier
omar
sim
ョ
##30
philip
##tua
evie
ɬ
collects
appeared
##weiler
##gman
almond
faye
##aged
খ
##max
##ge
stella
##mare
graduation
edmund
abstract
##cius
月
enjoyable
indus
urged
##cp
##ব
nh
⁴
warned
ezra
nak
consolidate
whitney
arizona
baptiste
1756
##ici
top
pat
easily
reconstruction
aged
seating
##idi
bear
plane
1912
floor
##tory
se
##mma
locations
##yama
odd
tag
pharmacy
sar
old
##ovic
richter
customized
november
disposal
disrupt
##₩
actor
bruno
donors
treasure
ि
imp
trees
doctor
##nsor
mango
tangible
centered
weapons
varying
acknowledge
igor
##ola
##ham
68
voluntarily
dump
drill
within
wiener
worried
diversified
existence
emmett
uncertainty
diagnosed
セ
scream
invitations
garland
##onte
casper
providers
maia
spill
conception
improving
##ignon
pseudo
##town
brook
tai
##weig
any
finch
##tm
vogel
lorenzo
1851
ᄀ
plaintiff
ʻ
yields
##ђ
en
foe
beans
argues
書
shows
replace
technologies
marshall
belief
illuminated
ripple
sincerely
boards
wayne
##hl
attache
##mies
##ス
outreach
293
validity
scenarios
activation
##qing
##main
##rium
##igh
##dell
religious
say
governance
1720
tun
prejudice
##vers
##van
ala
པ
classroom
沢
غ
haul
##ig
whispers
adventures
alias
1813
歌
ireland
ridge
swing
bloomberg
non
credit
flame
pv
territory
##real
moor
##uring
氵
christians
meat
##lating
dorothy
franz
patches
?
ion
##ari
explorers
hague
mata
reliability
travis
examples
record
delhi
ritual
##gate
fee
field
edit
david
##hen
gig
outside
1940
##fin
wyoming
entitled
budgets
ʀ
geological
serena
identities
po
subject
claiming
mbe
beam
parents
breaking
jeremy
ciudad
wagner
solve
mona
readings
ich
tail
##tute
tel
wipe
calculated
հ
considerations
fl
traditions
yong
became
cas
##bow
ᵒ
accumulation
tu
stole
ɴ
##rdes
##vial
doyle
##son
chet
criminal
able
jacob
usage
react
costa
##gart
rand
##•
manifesto
guru
revealing
talbot
granada
cary
soc
poland
##uit
goa
plain
disciplinary
wheels
obama
2d
craft
participate
##bank
##ehan
##ி
payments
text
1774
##宗
activists
上
##ᅡ
clears
ன
showing
##itha
lakes
kayla
##ffin
##egan
envelope
rides
pointed
mines
vanilla
aromatic
##ink
walter
incurred
swap
##are
##ز
relay
oblast
##ivar
247
##ᴬ
facing
sara
##ja
##ბ
##isse
usual
♦
phases
upton
occupied
aligned
##zman
##nick
inspected
controlling
polk
smith
90
1796
operations
mans
##llon
##dier
categories
leaning
fa
µ
theater
shaun
dorothea
##lr
ف
sodium
tung
э
deliver
##'
##յ
willem
##vale
calgary
ₐ
##qa
##finger
sourced
##elling
extremely
janeiro
degree
scroll
registering
##ery
europeans
##tric
khz
insect
accompanying
jung
serra
1821
exchange
##able
彳
filter
zeke
##ェ
##vn
thai
##ope
##ח
seats
quality
rapid
together
fletcher
mentoring
##enity
prose
motive
one
residents
inform
gandhi
##mu
##ndon
nix
bulk
##gno
visited
preserving
.
treaty
viral
dial
canning
fans
##sing
mendoza
unnecessary
district
##gel
##rti
kit
fundamental
peak
fan
橋
事
yu
##eaux
##aco
clubs
jett
freiburg
##ku
henri
##lga
relies
assault
identify
nonsense
213
##erian
amin
ceo
##duction
##ы
abdul
jude
many
thru
agile
olaf
ada
fantastic
scale
milton
##iso
##lding
##ン
guards
grit
glenn
paolo
##tera
σ
chambers
fit
scare
diane
beds
##kara
melody
##dom
object
##nier
lays
##wil
delaware
##ati
perth
ף
benny
warm
spectacle
greta
stack
lillian
equivalent
parkway
argent
skating
bertram
φ
##lana
2019
##tique
augmented
pas
quit
ہ
sip
1990
bind
ס
sandra
##chio
customs
meant
##nem
##cre
oman
dairy
##ome
cordoba
representative
relaxation
protect
##bly
feels
efficient
lark
100
deutsche
collected
clyde
佐
malcolm
##iva
##hit
cc
hereford
kristin
1976
##hor
tear
advancement
##τ
exist
whereas
leave
216
attracted
##wala
義
sunshine
puerto
crop
##ntal
purpose
##tead
326
##tral
##eca
staff
##lateral
crime
expensive
negotiation
accept
directly
##rring
prepares
decrease
mesa
surplus
neon
##mus
##rington
warrant
ظ
##horn
mfa
history
##e
1905
″
jody
1000
joy
elements
houston
trash
quarterly
coastal
discrimination
1830
##ef
##hey
irwin
attributes
ii
##ron
##鈴
lateral
ladder
compact
##tine
player
##ris
cpu
法
##rp
august
significant
##lier
intention
left
glass
##ail
##hering
supreme
བ
##raz
odor
##广
##nir
marco
312
comfort
changing
relatives
augustine
restore
lids
mirrors
roll
∗
##土
dilemma
volga
##and
##nant
ami
adjusted
##core
glitter
##cina
creative
##oven
launching
else
recruitment
urge
##ees
gdp
##aro
##wy
2007
##დ
extensive
ك
jul
1824
norris
##sio
barr
nellie
capture
##end
range
state
abbot
profit
##heimer
processor
groves
##ographic
1764
viii
boo
smoked
信
##wari
##省
roman
yo
georgia
dismissed
affect
##yr
logging
##zle
bourne
verve
greatly
##dling
ll
##ography
a2
catalog
319
barton
##nch
herbert
spray
blank
est
##寺
biological
delayed
columns
substitution
discuss
card
organizational
##lty
competence
##owski
oasis
236
klein
annual
silk
deeply
##hane
##ora
ligand
it
practiced
ego
intro
sterling
ze
maestro
303
quiet
screw
##iste
figuring
holstein
temple
jump
latter
##ute
##furt
appearing
春
dummy
exclude
retirement
alumni
forever
gods
deliveries
traveling
terrible
hiking
lakeside
recently
##rita
author
ミ
indonesia
jar
collins
##tance
##phs
clearer
honour
##ement
barney
remains
loop
flared
crazy
##asurable
kinda
crown
foothills
ش
parked
katy
pulse
##izes
##hler
##hy
busch
pts
broader
orchid
absorb
##hora
celeste
ground
##ნ
bye
##avs
facts
##hner
christoph
whispered
##健
lessons
provinces
darren
simulated
files
##gun
stresses
##rso
##ze
lobby
##anu
pushing
1938
talking
inputs
died
regular
interviewed
meantime
lafayette
staring
northeast
duane
tome
##eves
##sil
maureen
mascara
##rail
chair
##bba
##fy
##cki
##xi
openings
##и
cr
mama
##its
moran
dragging
corridors
324
accordingly
confident
##tre
exceptions
123
hiv
runway
##vich
av
simone
credibility
murals
##gram
buds
demetrius
£
whispering
17
##around
minsk
##num
technical
##ハ
vain
montrose
cyber
amy
expo
422
dillon
php
ᴬ
polo
##cm
415
／
proxy
##cure
massachusetts
##grant
##kali
navigator
heightened
mod
mats
hilbert
##bari
driver
##vyn
sienna
dude
stark
##;
##я
合
##な
##ulation
cone
birth
vilnius
人
september
flow
##ppa
680
1871
##guard
##drich
since
msc
conducted
granville
##dan
weight
diagram
加
boulevard
unnamed
preliminary
width
##∩
peru
saline
##irs
venture
##ust
∨
7
districts
##points
##nga
##hyl
c2
minds
leaves
##mins
cycling
ow
herbal
damage
salt
clifford
corridor
rejecting
₀
911
##haling
stitch
violent
oro
##idad
blocked
rey
vein
blur
vehicle
liverpool
journey
optimization
##adi
198
##ч
##rg
echoed
incorporate
abbas
unionist
augusto
##holm
け
developer
revenue
##logic
exotic
fiona
##ile
leeds
intentions
particularly
shit
piper
##at
##urai
239
ufo
heidi
detect
fact
alps
##糹
introduces
descend
##estinal
millions
frankie
0
66
##aby
bucks
delivers
frontier
vanessa
##vo
reply
adolescents
bala
synthesis
code
1785
##tten
exhibits
heading
newly
booked
cozy
commentary
##ᵣ
och
response
symphony
inspiring
foundations
氷
myself
efficiency
manufacturing
mara
भ
export
remainder
spec
##rrie
steady
##sms
##31
poe
dos
dancer
eliot
147
wilkinson
##hur
natural
fines
mandated
bea
observations
couples
dance
lina
##eus
defect
connect
##burg
wetland
globe
disabilities
nwa
recycling
wolf
english
segments
unpaid
filters
rink
ruined
cody
##lde
sang
walks
amman
herman
optional
##tara
murphy
##rt
##ayo
γ
##yne
sts
dickinson
alto
giant
##gui
nhl
esa
accepts
davis
constitute
brotherhood
sing
##ao
ᅵ
nacional
mai
jurisdiction
##orus
##ouse
』
surveyed
kappa
heather
ruins
luisa
pigment
collaborations
##cript
##к
regardless
rudd
holes
arthur
214
pledge
grover
school
##ve
##₄
lucas
jamie
entertainment
1838
##way
theo
##ppel
sash
inhabit
francoise
limit
upward
scrambling
bilateral
profile
worry
rein
touched
850
##fo
georges
shooting
paradox
wins
tension
##escu
feeding
##chule
ע
economic
8th
milestone
ष
promenade
jordan
rancho
fare
insider
##治
subscription
pakistan
emphasize
irene
hospitals
##ating
##ability
##la
citation
napoli
convinced
##roll
boss
##field
##、
demonstration
israelis
ou
lineage
philosophical
owing
wilde
quotes
warner
circles
##illy
新
ʁ
hoped
katie
sudden
1016
glen
virtue
##ך
##¥
amp
幸
1982
enthusiast
point
wall
alice
##led
##uche
federation
bayer
wave
layout
boarding
salvatore
kiara
kathy
相
м
ħ
bs
##lu
penny
zero
##eux
χ
##sily
legacy
##izing
1086
1901
##tle
representation
##57
瀬
##u
cash
discretion
grassroots
shifted
##գ
##nac
bo
rolls
treasury
##has
##ე
acting
stipulated
engine
##lc
##rial
radio
bull
maryland
##strom
spend
otter
spear
aces
journeys
suspect
homes
##ta
k
possess
aldo
##ythe
neil
cats
##љ
thompson
##idon
##if
keeps
im
tang
##v
hawk
picture
canton
founded
places
##house
begins
lightweight
conclusions
depart
muscle
suspend
loose
##sberg
said
##de
wrap
lazy
jeffrey
351
##গ
##信
already
finest
kamal
beit
wolfe
connects
walked
whistle
1700
1648
salazar
louisa
##hini
hm
jennifer
##yson
folklore
##edo
##bha
159
##nka
##nell
##rth
assign
ⁿ
dylan
soon
centre
##‑
hanoi
hui
suzanne
##erman
accompany
##jin
vegetarian
kang
reaching
nationale
244
##rise
reproductive
148
extends
climb
favorable
##istan
lebanon
144
##ro
strap
contained
aquatic
##now
pines
don
gr
madame
〈
##rity
##yo
##ally
670
##ı
manfred
occasionally
boost
hints
##nsk
##yl
champions
extend
much
glance
##kai
vile
##light
fish
у
restructuring
que
colonel
endowment
##ה
stadion
surveys
carrier
greenfield
lies
gil
commercial
purchased
##umi
automation
hangs
instructors
gwen
answered
mace
##lot
kinds
external
##yria
##bala
##rr
native
und
network
fatigue
reginald
recover
##gi
welch
gillian
##16
deal
##rga
##ck
გ
##das
lighting
abby
##rius
##∆
disc
physicians
yours
thing
##ப
37
gloria
pregnancy
##non
national
alma
##thes
bronze
##mani
##ool
##nte
nara
##nse
ᵘ
everything
gore
nl
maverick
မ
watershed
poster
m³
ள
ecuador
vietnam
ac
clusters
cara
1874
##nst
monitor
surveillance
##uria
preparations
##ₗ
ц
tired
bundle
##loaded
teen
##all
animals
##chman
an
meaningful
configuration
μ
danes
##vi
northwest
grant
435
psychic
woven
##ulf
##前
marlon
brush
##olio
camping
yang
channels
jason
british
1975
consent
malmo
sealed
日
##plication
clues
volatile
fjord
eugen
meters
partner
mandate
##rana
moist
##chel
posse
willing
##tment
##oint
craig
##ₐ
champion
##mar
subscribers
kahn
ali
##nz
mosque
kane
##ight
##ly
##ml
publicly
luck
ge
bonnie
314
mc
recruiting
##ogan
##hue
anxiety
jihad
##ude
##ls
trump
venus
breakthrough
##issa
1680
##rons
lung
1849
421
##cum
baking
well
exempt
zen
disclosed
counting
##tenberg
##bian
nhs
##sco
conservatives
grady
史
taught
evacuation
respond
##fus
tb
flexibility
良
##।
##bla
personal
path
stratford
spit
ambassadors
tool
nordic
ो
greenwich
pickering
##uts
writing
##ʿ
constitution
bran
70
geneva
##『
planetary
soundtrack
##ק
read
mechanical
ultimate
recognition
charley
rowan
##ution
senior
##print
##verance
##ð
イ
decades
notably
rob
##ede
cooperation
cable
##נ
occasional
##tec
measurements
/
1800
comet
म
"
cad
privileged
contra
adi
##ined
##ulio
##cliffe
http
lounge
mechanisms
##mind
。
india
##uw
nutritional
led
##ezer
##zen
pilgrimage
##chin
irish
mississippi
festival
##雄
lima
upgrading
##mon
フ
trey
influence
enclosed
##qui
threads
secretaries
trap
,
import
accuse
##uid
otis
ness
##inger
##kin
##ory
melissa
##lusion
threw
continuity
sci
saying
sigh
junta
##cratic
sleeping
##yna
hey
1920s
overwhelmed
ct
lal
coup
danger
boil
scholar
##ں
imagery
timer
barak
match
reality
nova
##vas
exterior
roi
equality
economist
1842
##shing
宇
dietrich
crab
##)
stopped
thousand
meteor
##rmi
norte
广
##l
slow
##yles
##ر
member
assessed
driven
##人
willie
reagan
group
manage
##sible
rr
demand
necklace
##imo
processing
pill
##vant
francisco
gaa
design
##ᆷ
##ration
##ilia
##dak
##rred
measures
hello
##itor
anomaly
ɫ
in
##ot
allocation
isn
hai
silas
##pro
##on
midnight
campos
##que
gonna
wc
matthew
colors
increases
katrina
##df
spices
summit
emilia
##lane
bound
ton
bt
synth
1660
discharge
1803
selection
balls
drained
getting
perhaps
themed
flare
halt
joel
imaging
summons
eden
##uddin
##itical
horseshoe
wah
##yin
promoted
cycles
declan
killed
spelling
ignatius
##jean
johnnie
courtyard
##aton
pound
seems
wade
juan
polymer
releases
vic
indy
messages
khalid
##র
statistics
were
authorities
underground
study
##gam
##60
mania
documents
grave
morrison
mostly
lester
harsh
bernardo
eating
1808
##henko
##lation
setting
councillor
hk
africa
##خ
##ᵘ
article
##ones
boosted
wizard
troubles
##ₕ
creek
torment
daniel
cow
hate
hyun
##高
##ulus
clean
##橋
269
gaining
walnut
pure
1980
1646
##bution
youth
anal
weighted
individual
##с
jet
edouard
##che
missiles
asked
##falls
clifton
restricted
##isan
tourism
1770
167
zheng
complaint
johnson
differing
participant
ramp
cream
tracy
1701
celebrated
ign
mice
##w
felix
approve
chasing
met
pollution
hari
##aer
##rien
sales
lamp
##hol
paddle
##ami
contest
stroke
260
ascent
##jong
focus
##emann
##方
##13
##kei
friday
properly
magnus
255
cristina
##cens
insane
##iss
chosen
##ა
##学
##ios
tracker
ev
see
т
##gar
viruses
statistical
valentine
barack
##chen
ʾ
buses
test
die
bi
##ened
render
studio
dare
directing
ben
kiran
##mara
##eter
revisions
##ette
orchard
atlantic
259
knife
##hi
dail
weird
##qua
not
portals
dean
stories
gm
##put
functionality
##ん
##rao
finger
##lls
carla
dignity
airline
vary
cloth
##osition
page
nam
prototype
##つ
chili
melt
haas
spotlight
##lt
ய
drawer
survivor
compton
##bert
transmission
cox
bret
##ese
##krishna
resolved
hired
##fur
##sable
outfit
##mable
noel
hazard
##ф
164
malaysia
downs
intervals
690
conserve
bloc
instrument
##nbc
bungalow
llc
packages
blew
##text
13
##公
marcos
##エ
nme
detail
##mming
##bal
kept
##hel
1780
humanity
saddam
valuable
invites
##hall
26th
##成
amounts
diplomacy
##門
flood
24
bank
470
fx
during
sy
geo
′
amino
dumped
scares
##lbert
##ores
olson
##ad
mustafa
runs
calculate
）
hot
seal
##erin
planned
##omo
min
bis
relationship
talk
rebels
legends
journalists
unions
including
##sy
beta
730
alexandria
mimi
ง
sr
solo
##lor
505
##vert
「
##ण
patrons
##bt
##lmer
##訁
semi
contribution
florida
##mmel
1794
##avi
patients
madeline
##ssion
notion
seconds
##gard
delaying
ken
totaling
thursday
keenan
especially
organism
admire
##uve
arid
walt
santiago
bonuses
##ion
##du
ག
remember
221
ap
keynote
目
buying
hazardous
##tose
showcases
##nian
matches
⊕
seoul
arrondissement
dept
##unt
joe
##ael
##之
##／
##rde
simulator
##tner
##cs
depends
hilda
serge
cia
pew
troupe
##ern
cleaning
loch
u2
clinics
##haya
specifies
trips
store
expect
organise
##cr
completely
1985
pirate
##cote
stevie
न
##tek
##yeh
##ᆯ
shore
##aldo
baseline
successor
##yi
ב
##pati
shang
insects
zurich
straight
##nder
##race
hide
##khar
environment
cord
##ual
mapping
iran
franklin
contributors
##♦
##gren
powerful
##oes
##ffen
tavi
##চ
did
1845
##hosh
##xa
museo
##dition
##থ
modulation
249
impact
##gation
##dar
rushed
##見
commodity
##lce
294
##claim
baton
kei
deposit
##ye
##lou
া
hiss
contain
dunes
郡
sp
mandal
diabetes
hurt
hyper
depending
##illa
ン
freddy
ra
attire
bore
hydrogen
write
stimulation
1954
festivals
interfere
5
##kle
household
prospective
##gor
##ian
65
##ए
threatening
mixture
mor
ม
off
dense
window
##gist
substance
emphasis
pad
vikram
deciding
1748
watt
camera
##rasia
##iting
tip
##ances
privacy
attacks
applicable
բ
probable
##rdi
constant
thermal
giles
broke
bakery
##gni
##uta
1921
via
beneficial
ა
1779
terrific
adequate
##unds
##ᄐ
吉
first
##ほ
motifs
backpack
food
##lates
##oses
thunder
salon
##uration
house
gem
##jk
##¾
regret
##་
##mi
##mme
##kit
rate
##ish
星
job
hp
##nagar
marking
##sb
##don
##bl
-
##itive
shirts
arrive
gravity
##eon
buyers
ants
zoning
destinations
##fra
williamson
telegram
transcript
##მ
irrigation
##oor
gun
jade
##ρ
crafted
耳
sofie
##aq
todd
##hman
ee
protest
reference
##uder
##usion
##gger
attempt
accessories
solution
##elo
stable
seine
calculations
lighthouse
##ldon
optimism
ned
augustus
laptop
keeping
divorce
julian
climax
thanksgiving
automobile
bars
arden
viewing
watch
gigs
##gil
warns
##ping
##》
##ners
##lham
glasgow
arm
afterwards
paxton
excited
inspired
typed
enoch
文
1915
accounted
##ardo
spine
##uding
##社
wax
shrine
tess
1724
mangrove
raf
276
chains
pascal
passive
electoral
##isch
##encia
andrew
##eiro
gene
gust
der
missed
1500
ortiz
pe
certification
discus
##eira
excluded
pump
duncan
slopes
selena
dolores
##im
outgoing
marvin
124
yen
v6
rodriguez
exists
江
norms
skills
strips
basketball
lagos
##「
##uto
homestead
desmond
aidan
monday
##hide
gamma
carol
curator
scared
##nard
zu
299
preceding
invite
龸
safe
1600
smoking
1765
川
released
eli
##tte
mint
##ٹ
values
bauer
anthology
sri
##stein
tata
lava
alien
cultivation
gift
##勝
explains
naval
tyler
nur
thor
succeed
guided
yoga
łodz
excursion
alf
up
sui
##rgy
heard
trustee
rustic
##lyn
stability
operative
##§
223
##anna
lanes
royalties
³
bug
vicky
307
faint
lake
hold
jewish
##gement
la
adds
##creen
mercury
orientation
##gle
##花
漢
calm
##ᅧ
miles
##eye
##hiff
ponce
spokesman
angeles
##fr
##nham
stated
farm
86
side
julius
##raine
measurement
##ifice
kabul
directory
calderon
contractors
openly
leaf
1831
parma
cap
winning
kent
visibility
asean
##川
##gio
echo
poles
types
##ो
##ław
##ndra
et
linear
1679
##ren
feast
চ
rental
1659
##oj
created
##urus
variable
##rel
##ght
bid
nana
habitats
receiving
##zal
generated
##riam
markus
щ
analytic
##nio
##chner
bristol
##ils
cafeteria
##∗
boer
ages
##ire
storm
##ら
*
drafts
wb
pins
clans
我
gustavo
dimension
afar
##eki
jimmie
之
##ケ
disturb
aryan
sustainable
statute
##阝
rails
luce
beige
##take
kaplan
helpful
viet
cues
satisfaction
similar
治
timed
amelia
##inate
wiley
##hei
image
habit
siblings
##¤
##oof
bee
alfa
optimal
reporting
havre
celebration
accommodate
host
chairman
##enne
##gol
##dial
##inge
ti
magnitude
面
##ist
1757
vet
##ی
machinery
##stle
##stad
ล
encountered
##lets
sgt
##mbe
313
highlighting
1729
objectives
292
thread
##南
lydia
ₗ
street
•
triggered
1809
##ost
##ʎ
suppression
sixty
zip
cohen
odessa
torino
##ا
ashe
law
corporate
チ
months
carries
##train
variant
##erik
##ono
##宣
##sts
bracelet
edmond
big
1937
alfredo
⇒
##ond
trenton
steward
web
italiana
lin
propose
corners
##ვ
qu
##স
scary
feasibility
simon
colonies
##rae
norma
jasper
genesis
geschichte
cooking
dimensions
ecological
rose
##arty
##etta
statements
why
contributions
##え
##het
1717
wr
cai
##gic
reviewers
splash
##fare
##lake
##dd
armstrong
ricky
hunger
catering
shane
bp
##isa
##sius
##ף
eva
coverage
hence
59
##wl
##eria
##rize
key
##quette
1695
tonnes
covering
do
copy
abs
directed
carroll
dayton
slim
stephen
friends
perez
##サ
##anda
silhouette
##tor
265
ivory
↦
wish
##vie
##ny
associates
pneumonia
giorgio
##nco
##nos
า
popped
##mit
##ering
##ean
##fle
##mc
duran
subsidies
considering
cliff
medicine
##zko
ole
buried
##π
madras
minh
possession
represent
funded
burt
hall
solicitor
fade
restart
avalanche
judgment
##carbon
eras
##ques
##gned
executives
wound
##icz
##frame
bonds
6000
actual
handicap
bio
shipped
strong
carpenter
heat
##thi
##34
occupation
lamar
sacred
##հ
den
##lam
##rce
##ර
279
weak
counterparts
hi
raphael
lasting
fields
investigations
##duk
streets
192
stephan
##〜
claim
momentum
necessarily
fox
multicultural
connecting
##cans
negotiate
##flow
##tock
difficult
reputation
##hrer
tariff
##wyl
bowl
##ナ
##vary
julien
aiming
tempo
auditorium
continuously
lock
harrison
##da
##actic
enjoyed
every
saved
andy
##odle
plays
aleksandr
robust
shipment
村
compute
quezon
numerous
brew
munchen
film
indian
density
adventurer
affecting
longtime
##chy
garrison
joanne
##28
sensors
briefly
stronger
1672
##ட
moreover
182
sealing
duke
designation
production
succession
been
alexander
he
founders
##ality
##ha
server
harry
1645
bratislava
reduced
そ
##く
wink
copyright
originated
##з
##frey
jeff
projection
##pol
##awa
த
med
##ն
cory
dia
bryan
lead
interact
lev
grants
publisher
identified
##sburg
##hya
elderly
couple
ate
favourite
control
ɹ
ト
##pies
sadie
fitz
clearing
jerome
##武
##ral
211
jax
opened
cultural
intervention
##ada
##rum
##hid
mobile
lifelong
whenever
##dding
146
##‐
ebert
liam
##color
##城
##bley
##thal
1712
promotions
##na
252
##ford
carmine
1907
pau
maximize
differences
forthcoming
passing
##rat
entrepreneurship
obe
default
##lina
breakfast
##slin
##vance
1861
produced
lia
apply
pena
argued
texted
twenty
various
ᅭ
anxious
instructor
flint
1731
##metric
heal
##ս
##ₙ
##oge
##mba
##form
##meric
contend
hu
sort
ந
neighbors
ო
representatives
##aba
##11
nobel
dan
##γ
patent
note
emile
##cks
ʎ
1891
meanwhile
practitioners
touching
excitement
find
##eni
dominant
lover
##nous
assisting
mystic
##nine
rm
##adan
contractor
ono
28th
gma
graf
##ア
ٹ
challenges
spokesperson
##ap
1924
conventional
##nya
1922
proximity
1719
mellon
hospital
530
refuse
nord
1740
separately
trustees
sam
ƒ
fraudulent
destination
##iu
considered
年
viewer
harbor
noting
rates
variety
##imi
studying
lets
105
terminated
##פ
handler
pillars
son
describes
##ckman
roth
gary
bum
terre
##uel
burns
##un
##⅔
italy
##ated
relating
##eras
scarf
consultancy
fischer
nash
jayne
phoenix
embrace
mat
verses
kendrick
enter
institutes
##ggle
dieter
perch
175
home
who
nations
##ln
dahl
guys
retire
available
##hoot
lindsay
##ough
select
theories
increase
biographical
##om
content
stacy
##wald
salute
libby
##ges
##lage
while
54
ko
sold
secretary
235
florian
##ene
gender
siam
eps
о
corruption
planning
##-
playing
ingredient
##wash
munster
##mmy
pearl
casey
dil
roche
skill
##cis
malik
ן
allies
##ffer
mundo
ek
advocate
##uni
linden
士
sami
habitat
complications
prediction
##baum
##გ
##uary
##onal
release
##watch
253
1739
nobody
tensions
hal
building
##∘
aye
franchise
gut
tibet
philanthropy
dwight
hog
1618
##vies
##inski
c1
perform
porter
laundering
kara
absurd
560
faced
mon
better
##sport
##very
candle
reviewer
fourth
©
##rand
##edes
saint
worrying
##uss
##emi
toes
##sie
##′
grandfather
▪
serene
respect
belmont
martial
sect
##bing
gertrude
dissemination
pause
delight
##吉
##dermott
pratt
feature
tricky
then
operated
proud
joachim
notes
ipa
judging
wholesale
1611
##tie
00
##cus
savings
##bron
1710
piers
seminar
companion
clint
##asa
##hore
princes
kali
justice
township
convey
##umen
tests
##long
tick
##囗
##ely
##io
bench
##etz
##日
fever
anne
mahogany
tori
terminal
ras
##oration
##pre
actions
anniversary
root
till
##inga
##張
##cey
founder
##tones
halo
fig
bland
ם
infrastructure
≥
##ded
colon
affects
##nae
anson
announced
##°
inches
started
ours
macro
manuel
tyne
##athan
remarkable
sylvia
carbon
385
ɔ
dry
farmers
ヒ
except
aden
lucia
mayo
1902
listened
uses
viewpoint
kg
unit
##sel
##oms
229
##dora
styling
##כ
vols
gerry
presidential
undermine
harlan
##otic
##ging
eighteen
stokes
##新
beats
longer
125
leon
footprints
inferior
rugged
piled
xv
monde
##kki
‑
winds
nebraska
126
priory
1966
美
putin
##ins
implications
berth
heath
affiliate
1st
ian
ny
assist
recognize
regulatory
qb
##ops
communicate
თ
baron
fate
interaction
##fb
termination
competent
excuses
naia
##gree
106
##cute
milford
##yse
cruise
varieties
barbara
establishing
splendid
modify
discount
##ག
##rud
##ed
楊
litter
##vey
frederick
attitude
idle
concludes
handles
supervisors
predominant
erosion
##gies
##hmi
##eche
corpus
##ller
##cano
##gent
scientific
sous
pouch
favorite
installed
ᵢ
overhead
##ining
brick
##hara
tailored
southampton
nyc
cascade
known
family
##yme
##rgo
kyrgyzstan
##ned
♭
fia
:
237
femme
counter
##lta
buildings
##ji
##plify
saudi
御
##med
14th
ى
##ece
##ghi
granted
gilbert
head
pri
des
stocked
villas
##ood
un
invisible
reminding
sumo
alleged
##orne
cookie
##ive
evidenced
si
brink
##bio
ethnic
##mann
mitch
165
birds
##bina
##vation
344
centralized
v8
joined
##க
##火
federico
♠
raises
trans
feelings
consistent
##戸
宣
frames
landscapes
##water
wa
##win
##ented
captures
french
330
##ffs
pam
##კ
##ple
trim
no
რ
pays
##runner
telecom
margot
##utter
##kan
assume
status
exposure
susan
acquisition
process
brady
arcs
ile
dom
grey
grams
adam
trials
nato
alt
mic
fore
★
marketing
multimedia
veronica
danielle
63
presentations
engagement
jin
ч
di
sock
crawford
financed
1846
realize
consensus
##ologist
‰
strands
seriously
##aar
⟨
junctions
xiao
peel
サ
700
brewing
ruben
##tang
##⊆
sequences
##esses
interests
tavern
compatibility
nor
smoke
##ending
302
thorough
##ema
relocating
aaron
##pina
turbine
shared
181
limits
nu
##qu
##ffi
t
##iel
##fell
##net
##dha
hope
continental
gael
1997
arterial
jesus
wonder
gerard
##hetic
illustrates
drip
##uth
kala
gage
520
democratic
reviews
voted
185
sima
firms
##cular
##জ
910
##ath
##his
¶
##ホ
##lman
proven
夏
##sman
fresno
clark
vulcan
##mmer
esq
emery
facility
##athy
abdullah
birmingham
##tyn
grandson
departmental
lionel
186
219
##œ
means
otherwise
specifically
holland
oct
belt
→
##ouin
cole
nun
medial
##utus
force
boon
tyson
##⁷
wisconsin
proposing
##400
‖
offering
diver
マ
declined
layer
suggest
raj
5000
##tiv
brody
historically
doctors
vigor
##nger
enormous
roberta
meg
đ
represents
##tag
noah
##nd
certificate
##森
oscar
dai
claudia
lose
mohan
##eral
葉
pow
##sque
##powering
backyard
io
finalized
roberto
latitude
##ified
mv
theresa
geometry
340
##ade
erika
स
ultra
sid
פ
##fest
ـ
jain
fr
##01
unique
suits
##bation
##acio
##vd
withdraw
dumping
posts
money
individuals
magazine
ს
##nut
coalition
russo
¼
##wani
desktop
##pal
iona
discussion
##rm
de
ю
devi
edwards
##sen
reinforced
mage
traders
##ading
##と
##ncia
skies
##rky
angus
ascension
soda
##nb
andersen
wallace
scenes
##hurst
ӏ
##真
ferrara
unemployment
activist
vishnu
citizen
develop
odi
drop
##opa
justification
pixel
enroll
toll
arnold
341
##eve
saints
$
##sop
petit
##mia
jury
##pa
eduardo
##rgos
##lace
fresh
carriage
pods
asia
logan
brat
demonstrated
memorandum
newton
credited
apps
potential
nicola
73
chronic
pont
ae
##oop
abilities
julie
##brand
##．
##life
reed
written
retain
##glio
fills
##holz
candidate
##vable
##に
deep
highly
mabel
dish
sonia
proved
warren
terror
za
##た
barry
ই
farming
dimitri
modernist
##nia
baha
##cia
goal
333
bach
arkansas
cent
ex
morse
emerge
##tas
disclose
ina
utilization
demon
seo
housed
course
##nti
sneak
las
narrative
insufficient
watching
factors
halifax
copied
counselor
##nca
334
##我
spinning
dogs
145
junction
spreads
enthusiasts
dodd
巿
russian
landscaping
##yam
consistency
284
candi
##hers
shaw
preference
suns
longevity
gorge
appendix
jen
##世
batter
##dick
bears
migrants
##dp
hoc
##ference
gaza
surviving
reminiscent
def
##ili
vibration
weber
mein
##ರ
validation
transmitted
##bes
massive
##rou
##ert
near
alexandra
ᵃ
announce
tragedy
safely
##tres
10th
##cht
minimum
夫
racing
cairo
pipes
##yle
practice
historic
projects
##100
mcc
nbc
##京
aunt
samba
354
cycle
shower
lyrical
donate
3a
colleen
divisions
supplementary
sebastien
##ija
declares
##oshi
1911
stay
expecting
smartphone
bases
chain
investigator
redemption
cornell
##mute
ca
る
##ո
sea
##tow
accessibility
little
tutor
##₊
queer
emotional
##dra
##sume
pest
absolutely
rear
karen
authorised
marlene
uk
dh
discovery
erin
amenities
christine
4
moves
trainee
hilary
##ʌ
##jic
gora
##ored
bulgaria
##て
dispatch
yusuf
designate
judy
spin
marge
gathered
java
406
luke
mclaughlin
hesitate
epoch
ka
obtained
patio
##oped
coping
residential
÷
khan
##shed
龍
1662
parker
python
##ם
河
accident
endurance
bard
wince
##hem
milk
##lore
repeat
##fulness
20
ɒ
reminded
↓
lines
insisted
##graphic
gentle
lined
sylvester
trading
port
##ধ
classes
sculpture
frankly
freud
harmonic
rosario
shoes
##kir
mis
averages
##iji
##rera
##ori
doesn
##sf
convenient
pretend
deluxe
retained
istanbul
1634
##正
##isha
elections
rio
patel
##ison
oil
regulate
medieval
greg
institute
##л
##の
##smo
##smith
crossed
tightening
teacher
genuine
diffuse
193
lucie
updates
delivering
##ulates
yer
ownership
platinum
laws
##erry
prosperity
tyres
gui
sail
345
areas
##sho
##nt
rug
##weed
##tp
richie
##二
turkish
##iate
##բ
##པ
##lad
twelve
guardian
difficulties
tornado
ava
張
##ɪ
armand
##tails
worn
##nging
inch
480
highlighted
ま
tia
instant
ismail
om
##tila
particular
##ग
modification
programmer
1949
college
##和
purposes
leonard
steps
fossil
##ད
coat
op
prima
exposition
ida
congressional
##oja
##aver
beacon
heck
replaced
american
certain
dollars
##43
wang
lynn
1899
caught
##20
excess
##nett
##gb
demonstrate
passports
salvador
graduate
makers
ito
##chs
choose
1950s
impossible
rains
systems
goodwin
##pio
##bahn
1882
sin
cans
competitive
vocal
##tica
partnering
stating
permanently
meet
谷
##lone
reported
officially
chandra
leipzig
aging
earl
##not
##fold
console
mothers
##ια
targeted
##ร
##mons
snack
##leton
me
hung
dale
phillip
##utation
slightly
##mpt
rei
##rsk
##oux
landed
##nburg
reform
shea
terra
indexed
##inton
using
compartment
«
start
gdansk
##ay
are
dead
##白
vr
grandmother
վ
##cer
25
##base
wasn
browns
lao
##boro
referred
afro
scholars
camille
475
jong
##cture
##zell
foundation
wonderful
vine
preschool
##eles
##ometer
described
fbi
##wana
נ
##tadt
##河
ideal
##hing
exceed
include
consequences
##司
eastern
pass
cruises
##oed
cool
উ
hiring
timothy
utility
schwartz
questioned
jang
ρ
weekly
atlanta
combining
contract
##ci
##akh
##ises
darwin
flux
donated
practical
պ
novak
##veda
cart
bubble
groups
og
##hre
expressway
ads
raw
accountant
##phon
##bas
&
##mith
1652
exposed
##vina
##pm
gate
integral
aberdeen
metabolic
##井
gov
god
##cating
brenda
##ump
marches
mann
l
comprising
res
##agawa
bravo
##dberg
ruiz
##ntial
wire
grupo
federal
kill
appropriately
fresco
rum
##mberg
##mering
gamer
generator
took
pol
31st
##ours
eligibility
grind
editing
##ⁱ
zinc
51
mega
shut
##oza
laps
thinks
##frid
##⁸
##inn
##hai
dyke
testament
calcium
##llar
##saka
##con
1929
##bei
##ows
phoebe
friendly
##fu
quarters
remarks
##cky
leather
resolve
cosmic
electro
martini
sven
consultant
405
##আ
##ato
vincent
again
thee
156
##oir
supported
troops
sean
palma
games
myles
tropical
directions
##nk
##b
108
sevilla
requirements
drowning
ally
regression
sophia
ᄅ
genome
ь
tracking
##mission
brief
enigma
##gnant
##tagram
ran
recalling
tatar
##本
paradigm
container
38
marion
digging
students
aware
davy
glide
evelyn
##holding
michael
adjustment
rom
shipping
alternatively
##ita
##堂
ruling
insight
保
leaders
romney
roster
weren
##lok
##ov
##unce
##nu
urgent
envoy
influenced
##pur
##nna
management
##imus
bot
##baldi
pod
consultation
##wu
kristina
minnie
115
##*
ivo
##ɐ
william
index
international
scores
1752
##ness
advanced
warn
ᵏ
hussain
##pher
##།
##eering
ana
##marks
overtime
lok
action
##ung
narayan
requiring
child
##script
##西
##eg
analytical
##lind
##oton
play
organized
##ona
obtain
##cat
bracket
salad
##lka
blond
noelle
romano
request
wear
##say
refusing
glover
##less
ˈ
recovery
##ο
clip
vision
late
excavation
tao
middlesbrough
##att
cork
office
##cation
peter
exemption
747
sell
detention
##kia
##nare
##ilis
##apa
定
##meo
##漢
tested
jew
deployment
fruit
##shan
cliffs
chinese
##च
hangar
advertising
##lea
rams
making
humanitarian
dates
afraid
monk
implant
ک
##cin
##hip
laid
arrived
bobo
##〈
ν
´
scarborough
##lance
##ᵈ
youngest
polish
private
fence
deviation
paperwork
##rry
drink
≤
bin
ignoring
agriculture
canoe
peaceful
##yte
##nr
##月
##gens
##：
uploaded
none
公
dime
place
invitation
penalties
男
vault
stood
jackie
diversity
##ver
##udge
##wicz
ნ
bose
brant
analyses
wet
##matic
illinois
##nam
sen
winding
over
begun
##ostal
bent
fried
metre
groceries
##estra
##ser
designer
vertical
sprung
raju
moments
chunk
game
scholarly
liberation
##ask
1953
five
lovers
terrified
##70
speeding
installation
1971
emotions
cam
crypt
##mac
##uda
##bold
addressing
portions
貴
establish
dip
texas
reward
##ville
sibling
complained
temper
133
utilize
manufactured
olds
severn
##fan
citations
ா
##bel
benefit
flower
##կ
##ision
##nish
1727
securely
##mond
landscape
##dget
historian
hara
##late
providing
assess
##ர
intensive
component
worst
##cles
reflections
cotton
quilt
roger
bal
##urer
##rod
##ッ
crescent
provence
natalia
zimmerman
##iring
thrilled
■
johnny
こ
amendment
dedicated
computer
cesare
critique
##city
##iki
cognitive
##cting
##rook
becomes
public
shiva
mastering
##iam
##rik
jed
ո
##出
players
##oid
~
islands
expertise
naturally
dick
propulsion
hose
collin
525
##bil
##〉
##eth
completes
wooden
brother
printed
##後
##ac
leslie
researchers
miniature
notification
conversations
##ked
gideon
groningen
mall
##hwa
iron
2018
arrives
responded
ח
##⟨
1689
das
##イ
adolescent
##ᆫ
showcasing
sprint
fastest
declaration
±
reporters
##gp
consulate
pronouns
paste
madam
thom
##gus
milano
separate
invasion
attention
##mise
##piration
aggregate
##yre
authenticity
suburban
##uls
lam
侍
bei
klaus
有
##asco
summary
##zia
##eros
environments
##nath
este
jiang
nay
willow
bog
striking
##lean
isaac
##セ
##nda
conducting
verlag
diverse
mystery
bottles
transport
cuts
1621
alec
indicators
toward
##works
省
##gm
kerr
nic
clause
robot
##ien
wool
195
##leg
լ
turnover
notices
signals
midi
awful
##山
ז
creation
1944
lucknow
270
around
previous
sudan
##table
##bey
exceeded
churchill
yield
陳
warmly
shade
##wing
convergence
inclusion
##sr
fold
participated
##ast
simi
chang
##街
resume
tt
controlled
chef
##si
creates
basis
assumes
circulated
curve
years
##khan
##vid
prix
##oue
installing
##cao
hamburg
ら
vendor
announces
ต
framed
scheduled
1622
repair
irina
become
percent
interchange
##uded
##etic
##zel
trust
mas
download
masked
drone
##は
running
##υ
climate
housing
mediterranean
reconciliation
shapes
beethoven
emilio
rounds
attending
etched
pentagon
climatic
courage
##75
mitchell
##qi
kidney
curry
##‰
ringing
louise
stereo
checked
##ward
##ote
consul
־
yuki
##弘
yarn
parties
willingness
##lika
agreement
describe
mirror
danny
##yon
ว
bill
##内
played
memo
##ouk
outdoor
fifteen
##40
duc
##食
nadia
operators
rani
una
extract
##е
##竹
##dridge
sites
restoration
squares
goran
##quitable
sands
た
44
##ents
quote
provision
##kson
hem
##神
智
monsoon
zion
supervise
intern
confuse
having
⁰
##ia
##sed
facade
hidden
พ
academic
interactive
personnel
##ras
carrying
##ums
intuition
clinton
##mat
dickens
austen
329
##written
guts
illusion
mobility
##光
markers
ud
arranged
romani
factory
nils
loads
英
vp
德
sho
natasha
smooth
saga
##lli
dung
##oka
1964
rising
rupert
扌
ask
marks
baltimore
braid
elastic
##logical
cadence
javier
francesca
น
way
puppet
##ook
##ance
husband
178
”
##gging
adolph
appears
assessment
##oot
208
amelie
botanical
bangs
sir
suite
season
ನ
keyboard
launches
ernesto
stir
##ahl
bird
bilingual
##ure
wilder
victor
pots
administrations
##inates
detailing
##ganj
violate
bernhard
structure
ය
padre
perry
mirza
##aca
##nation
##andra
ւ
林
latest
;
swindon
##kou
tudor
ik
henrik
##astic
##ignment
biography
jim
##¿
communal
##38
##zoo
1663
coast
##port
relative
##z
1823
kemp
niche
kelvin
##iri
deer
##roving
##outs
precipitation
##ended
amulet
##26
marche
##phi
contents
problematic
##vati
rv
hopes
gardening
model
4a
obvious
courts
co
##ি
crisp
vegetable
client
tournament
dull
soo
benefits
##tics
carefully
billed
₍
##fect
elegant
##nen
##cb
walls
##isi
##ads
##iens
ђ
1942
sonny
22
##pid
amara
##wal
koppen
শ
dog
temporarily
kimberly
verified
##hila
##ᵏ
179
belfast
##phy
bree
solely
##feit
ք
hirsch
conditioning
equilibrium
cyclist
##85
obstacle
##aus
##ル
transform
valencia
diary
tighter
ի
1850
博
commuter
avoided
guides
modes
konrad
actually
ellen
helmet
sampling
##kley
##ovo
enrollment
pathways
stall
exception
ross
victory
encryption
extending
roosevelt
ambulance
+
availability
1810
forgetting
ང
elgin
rope
##ᅭ
dishes
reuters
nouveau
initiated
csi
aviation
differs
##ngo
defined
emphasizes
永
capita
father
culture
electronics
seasonal
26
402
##uous
##aint
quarry
##outh
adapting
tell
##how
tomb
puzzles
example
##head
##tension
legend
automatically
patient
angelica
1881
##mler
み
##aki
##tase
authentic
thus
random
afternoon
version
mendes
formulation
budget
##dication
buffer
fashion
iso
forrest
influx
##our
##ᅵ
##hom
replacing
ties
##¦
scrub
##ige
mainly
##bate
muslim
seated
##vre
missouri
ᶜ
blade
##tic
ranging
lou
rivera
homeless
##শ
swamp
##en
parliament
harder
santos
delays
1895
injuries
durga
teresa
beg
lexie
harvest
sack
##rad
goldman
grand
##வ
ceramic
श
surge
alexia
addison
satin
landmarks
国
jones
cement
1864
matching
##tti
alba
##ty
amid
leigh
heating
garry
pune
ventilation
ancient
cornelius
step
honda
nero
##rine
delegation
antoinette
regina
bust
糹
##af
euros
armenia
##د
nocturnal
מ
laurence
1892
wendy
21
ancestor
mild
##rter
##cede
##key
scala
ink
##stick
shifting
echoes
##ज
victoria
##cut
suggested
##bia
acts
jets
liaison
payton
beth
##ique
##gaon
##hett
1788
atmosphere
guild
aquino
##asia
calendar
##ك
edition
##icate
kurt
startup
still
##ignant
weapon
pdf
ag
comte
##iy
1723
##laus
##♣
prof
databases
max
dorchester
insulin
##dant
shia
##劉
listening
###
washington
retail
jalan
paso
nt
##ber
lights
elevation
floral
車
excel
##zers
theatre
##ament
山
##gie
420
##pas
272
##nica
##jah
heaven
##36
##ante
abu
data
initiating
ʷ
mother
##gga
choices
meridian
miner
∅
##ved
##hra
annum
##uro
wednesday
emblem
##trom
ic
##kus
##lun
powell
presented
innocent
lean
##ζ
desert
atv
##ち
hamlet
isil
heartbeat
1778
##ת
fun
flows
essen
compete
chi
picnic
lange
america
mistakes
##kill
registrar
##x
verbal
at
gladys
clock
albert
304
staging
##belt
authored
scented
##rift
remaining
##bri
document
271
safety
207
burlington
orb
roof
##fles
##ᅲ
eu
official
quarter
voyager
##enas
older
orient
atmospheric
titled
##pp
bend
frequently
hang
deploy
##cot
##pone
fluctuations
magnet
statewide
features
guy
violin
##nel
##aur
screens
stocks
##う
ث
##bard
performer
recurring
コ
shifts
cannot
date
##kam
##gall
fritz
taut
delivery
question
curves
mate
duo
##atory
lucinda
##rd
inversion
##iving
##є
inventor
moore
dd
vegas
singapore
##cked
dawson
##phone
financially
holy
regions
consultants
reliance
##hardt
properties
veto
dinner
gear
sept
1754
found
##aly
##dl
##א
rooftop
##bad
occasion
granite
psychological
vacant
1828
carly
utilities
ninety
vane
132
flooding
1872
##west
serve
tunnel
starr
##ᄀ
costing
##igny
##hian
gram
dose
##odes
accompanied
ʒ
famous
tracked
lily
stepping
shields
unknown
titular
##ington
##pala
տ
preferred
rehearsal
##oic
ram
##bai
##rone
km
1690
ᄑ
intuitive
macdonald
##ης
zachary
comedy
1609
wilhelm
ft
yun
identical
here
weighing
##ingen
spectrum
conferences
151
04
fir
algorithms
quicker
worcester
ocean
ser
count
candace
1933
calculation
forecast
apartments
16th
##aves
##ニ
endorsed
√
qing
privilege
##\
followed
ata
##cross
attributed
##islav
conscious
aggressive
帝
mir
с
##⁶
##nberg
lacks
slope
ella
verification
##み
##bi
##nate
corrected
rapidly
harta
baku
##dry
compensation
##ack
##也
##pis
##ᴺ
asset
thin
231
ballot
surface
##ich
1840
##front
hush
absorption
vii
promo
stony
give
tiles
vidal
oval
outlets
inverse
##hita
lightning
ear
featured
kylie
relevant
laura
norwood
trajectory
electronically
billie
〜
earthquake
##ient
slots
450
science
##llie
stamps
media
dropping
scent
radial
##cing
##‡
yesterday
メ
##ani
humid
feng
nose
5th
recent
##tens
uncle
juliet
incorrectly
condemn
compliment
furry
skip
ذ
mistake
greek
platforms
smart
utrecht
##…
##yad
rama
tbs
launched
roe
##野
##heim
sofa
170
##mbo
trace
sank
town
##ats
safer
brigade
6
barrett
##rdy
nap
##ং
felt
##inda
bertha
##eo
breed
##cap
interdisciplinary
quincy
magdalena
##bella
something
rahman
trait
designing
annie
##長
##hua
stakeholders
天
2011
1816
minutes
##ס
エ
##drick
##आ
##sling
karel
launch
##itung
stomach
quantitative
vineyards
bald
failure
spoken
announcement
faithful
arise
##uin
bukit
dining
drills
integrity
##よ
accent
1704
##logy
古
held
pr
6th
語
expansion
divide
student
ems
bike
##som
##tries
##hof
aziz
woman
linda
brian
methods
element
##35
##write
eat
stores
ol
1743
mccain
bounced
ा
##uman
ᅧ
month
dancing
strict
##cats
edna
mentions
mueller
shady
alvaro
realise
score
stanisław
##quin
concentrations
tram
3000
½
161
wellness
##lent
labelled
##cter
persistent
wo
lax
kitty
energy
toast
trained
rogers
ongoing
immigration
dax
##ester
communications
seamus
class
opposite
shine
##uy
introduce
gallery
antarctic
out
limp
strengthen
upper
##group
##neo
##runa
endemic
opportunity
bruce
donor
him
¾
comments
jensen
gotta
sorted
##sam
##ities
yoon
187
tokyo
professionals
tiny
cassidy
blend
navy
ban
287
1758
deadline
releasing
claimed
##arth
800
tran
stand
concrete
lucan
##ors
##☉
##re
tha
inflammation
emerged
fiesta
##cott
co₂
##hun
##kic
stephanie
bobbie
##asse
##vez
braun
has
sofia
##hole
##eer
##zio
minas
agustin
##dro
robotics
output
mutation
##ctor
basics
grateful
##ting
dora
pauses
architecture
##witz
past
libya
wilfred
trusts
##mad
replacements
成
longest
29
growing
questions
chloe
contributes
carson
sustainability
parameters
kitchen
empty
rayon
ellie
##bay
##ラ
blunt
bouncing
ლ
steve
rarely
leah
jerusalem
lap
##nall
##pine
couch
pauline
leading
zhu
huge
1904
nz
castro
collectors
research
##gill
pup
porte
cooperate
##tify
peng
hd
elaborate
casual
##ode
##oum
##व
going
aero
krakow
sincere
4th
refer
listed
apparent
npr
##iable
##sation
間
inc
amended
sas
romeo
opinion
rotterdam
cables
casino
constraints
potentially
jackson
adding
footage
patricia
temporary
putting
##ses
straw
##sier
##mament
bean
descent
201
gia
12th
##ol
sullivan
batch
reset
toby
mature
##vis
passenger
##ants
##roller
ministers
sovereign
##wan
##col
shouldn
##itt
lucien
##ひ
gen
##tate
laden
rotation
dust
ක
fights
square
##元
##ree
##vres
##mont
endorsement
##ssler
##wee
expedition
##per
slipped
sheikh
therefore
manifest
came
discomfort
mina
##dit
##ein
metabolism
center
ᵤ
1776
##語
##lom
gems
jam
##《
ワ
leaks
remedy
inspections
##rations
seasons
manipulation
##aux
jimenez
tomas
watering
##omba
nm
bern
390
entities
##as
##tma
stefano
limestone
nephew
##dong
marcus
##stock
##isk
##rza
enabling
medal
math
モ
eleven
##扌
bail
viz
claus
##igraphy
gale
1965
pit
##quest
welcoming
screenings
##cola
ড
dexter
##四
southeast
##kh
##ind
browser
##child
altered
destroyed
handheld
ridiculous
！
promoting
##zee
##chet
##chai
routed
##amine
##ior
##bed
supply
##58
##moor
anchor
sic
vintage
##rona
balance
##rani
##iere
beneath
##elli
##tical
##uno
frances
##kie
tn
##ower
forts
##iny
##ulsion
##nais
口
##rina
mills
restaurants
≡
baden
##pit
let
##cast
omega
210
17th
##ulum
transitions
expanded
hilton
earliest
lens
showcased
nursing
proceedings
internationale
福
##lis
rolled
##film
traces
phenomenon
lab
threshold
##gut
1742
harness
##rta
enhancing
abc
ɑ
electrical
campus
vans
##enberg
##ej
1825
lindsey
silicon
##havan
##―
adaptation
cooperative
407
##ech
singh
##ungen
intermittent
abuse
promises
##ล
ᅡ
may
seeds
royal
guitar
138
agreements
ɡ
##■
##post
terrain
pereira
kraft
christian
artists
muhammad
##∨
starts
sparked
mates
thoughtful
##’
##jon
engaged
##orted
mute
beginning
1763
1916
complaining
##ib
rendered
##used
♯
treasurer
jack
1956
##হ
fraction
##tial
cyclists
sane
ambient
pete
257
presentation
miracle
sapphire
brothers
wells
palazzo
execute
quebec
##ew
county
outbreak
vial
constitutional
fuels
opinions
isaiah
##ᅯ
muller
girlfriend
##ט
sable
serial
##ega
broad
mm
basin
elves
##mona
greater
##idal
logic
gains
calling
entries
chase
cited
##lence
176
##bant
supplements
introducing
##vac
slip
gregory
songs
noir
##sz
##sons
##rem
disqualification
ramirez
1918
##rella
disregard
28
purchases
##ots
rumor
there
incentives
leads
commerce
deux
abraham
ching
##thor
estimation
す
often
interpreter
##nde
##tz
pipe
circa
dusseldorf
403
variation
comune
fitting
formally
schedules
##ryl
##і
nestled
chan
介
tribe
intend
continuation
kendra
modified
dawn
##iance
connecticut
mold
##nce
ethan
ষ
luca
geometric
sud
nelson
200
##aking
matter
290
boca
reproduction
sutra
award
spectacular
hanna
##dou
128
collaborators
rice
dir
pedal
steam
1734
327
story
sexual
hepburn
comes
possibility
##rop
concepts
taxa
adams
qaeda
sat
##ₜ
consumers
##lary
jeanne
fm
ο
color
warehouse
restriction
##ᄅ
gases
expressed
222
ya
avoid
##vino
キ
that
closing
impatient
dynamic
physics
crystal
em
##غ
practicing
##ﬂ
bao
mule
plus
य
arrested
##mbit
apple
##urt
successfully
mater
aus
apes
##5
f1
departed
transitional
##ия
checks
##schen
gym
outs
brave
torres
##ane
chelsea
##mg
encore
drawing
berlin
##ے
##orn
##ء
ᆨ
animal
##mack
nik
laying
penal
760
vinyl
mortality
whose
mr
sponsors
capsule
priorities
brock
spirit
incorporating
exploit
ms
##ital
joo
pieces
others
constellation
listen
nora
##—
agricultural
ki
з
demands
readily
dispatched
##iation
petition
francesco
guess
headquarters
obstacles
##d
epa
##vitt
textile
pot
scanned
##eson
walk
merchants
##pel
butt
pile
##eda
sorry
suspected
ebony
##see
##pathy
drawn
prep
##$
green
steven
##ced
1b
ᄏ
fast
qualification
shelter
related
##49
campbell
presidents
bologna
##ier
##olt
permission
penelope
##⁺
backstage
ibn
##bbing
##koff
honoring
studios
um
understanding
##person
heir
##urst
challenging
pretty
poll
##uma
alone
་
reject
##red
earnings
kerry
silvia
##els
ಾ
1804
quan
##nko
227
##ieri
##iro
cite
deleted
wen
##ise
fei
culturally
heights
answering
topics
zev
spy
171
explosion
##rance
##ogist
##far
##born
##iard
review
buren
42
##ative
permanent
ruse
##oku
addition
##wai
ᅥ
pact
thomas
destroy
##ss
##by
##rgh
##lee
large
lough
reflex
kathleen
celestial
##mail
##gating
humans
distinguished
অ
joao
liter
licensed
hans
didn
comply
樹
determine
##lars
resulting
nod
##bc
fontaine
funny
alvin
milky
matt
luxury
sand
##aldi
secret
##bor
prefer
associated
registration
booster
##nent
struggling
##lish
1995
##fs
proper
pads
wills
heart
correlated
##উ
カ
crying
woodlands
dim
blowing
cargo
##ets
catherine
slowly
##ord
lesson
witnesses
respective
compass
chile
samantha
##ث
##buck
battle
##logist
loves
##kato
european
##ero
仁
bobby
##mana
celebrate
waiting
31
##rgen
tracks
felipe
dietary
##ske
warmth
##rane
三
tony
ios
lamb
amor
1666
hee
mister
worldwide
intellectual
镇
alison
pledged
implementation
ы
break
employers
zone
highlights
##scoe
##gat
following
kim
apprenticeship
石
beside
scott
db
supporters
hawaii
touring
##sm
jane
exercises
metaphor
classical
sanjay
ও
vector
herb
##boy
spike
##arding
judge
##প
advisers
nostalgia
##crow
counts
confirmation
association
##貴
walters
parts
##，
eliza
adults
seeks
##orio
debris
##scu
settlements
corporal
stewart
acknowledges
李
##pps
##”
propagation
381
growth
chose
reconnaissance
gel
packed
distinct
think
republicans
##cala
##omi
##bs
rhetoric
cure
bang
autumn
tent
##hg
hid
₱
##uch
werner
##taking
irrelevant
elsie
caravan
draft
tee
reductions
somalia
##aia
bark
reducing
bring
tax
hat
spat
gmbh
##ள
##nitz
riff
underlying
care
##ello
wood
informant
pseudonym
##itaire
works
timetable
affordable
filling
row
10
宗
musique
##bies
emails
coded
98
##ime
splits
wilton
##す
exploring
##cle
##ilde
wagon
comic
register
jillian
##nies
refused
##hoff
dr
refugee
plants
##roi
handle
##piece
aaa
お
169
nc
niagara
guarantee
##val
chesterfield
vu
gabriel
##eum
gross
##abas
fellowship
##yev
竹
س
##ield
##ape
entirely
##ards
dating
##bula
robinson
##!
##itzer
specialist
curate
lizzie
##ষ
incorporated
dea
immunity
##ong
covered
cid
##anto
lila
##三
127
1955
cleveland
sunk
ʐ
operatives
www
կ
weave
materials
locked
hong
##д
國
##national
wat
##ι
ն
turning
sharpe
boris
feel
cha
celtic
##テ
pg
jointly
numbers
attempted
auto
##ius
cab
alongside
deck
expanding
area
ə
mph
##ease
subtle
advocates
代
objective
##म
keep
isa
third
naomi
##oat
1623
cooling
##book
hamas
‚
ski
##wich
pike
isbn
mock
ferdinand
chefs
glacial
方
adhere
hue
—
mean
basically
damien
barriers
entering
embark
workers
pendant
ш
##mo
##₆
least
##ark
##screen
paragraph
##ti
##bling
##uance
##ith
consequently
##erie
##ete
performers
achievement
##.
##ug
december
rebuild
ল
##・
une
command
wai
∩
swansea
always
impressive
marilyn
save
berg
shown
##yal
##boarding
got
trojan
scar
ronald
kong
mounting
creator
currency
positions
aren
compromised
##ister
scars
np
mouse
advising
bottom
sanders
##ς
pedro
garfield
ape
destiny
ready
becker
##camp
maternal
lowell
influenza
what
suddenly
inclusive
stages
jakarta
corporation
tactical
hailey
##ₚ
lublin
##tile
1643
₃
spiral
##ncies
##保
seafood
##mori
##nton
##oulos
level
accommodation
intense
pin
domenico
only
approved
against
##uen
##loading
accessory
escalated
##ulating
##firm
##ј
lobe
specimens
##星
12
##夫
seed
##comb
##目
type
routines
life
certificates
baby
一
gong
₅
##yala
1200
riding
rafe
call
responsive
visitor
blue
valley
##esis
ி
##hold
jesse
##eim
extracts
age
eun
##kota
rich
##more
adapt
##rio
##hh
manchester
xiang
##naut
lena
##under
funeral
above
recruit
##dal
197
bain
quiz
pre
effort
fabric
maud
traveler
##32
liga
connections
wines
texts
bodo
##66
##tlan
viking
##ة
press
380
neighboring
category
##清
₇
operator
allegations
marker
2010
ordering
probably
bathroom
absent
##福
##miento
alessandro
##¡
##laya
я
birch
california
adjusting
1919
wee
brain
##ص
saber
essay
fide
##ettes
specified
##xin
symbolism
sweet
avila
202
##rick
##朝
porn
proficient
orlando
⺩
memories
search
jewel
maintaining
seam
##ifiers
β
criticized
debts
##ᄒ
define
bees
automatic
planet
##rito
donation
el
statutes
snaps
born
trench
recognized
##onda
##rber
umar
andrews
##σ
attempting
platform
unprecedented
##उ
organizing
crack
##like
##hoe
les
today
soy
elk
admit
moscow
sex
leadership
trusting
pastor
laurent
tuned
lille
followers
##atter
synchronized
could
gently
remained
##ports
problems
##hort
application
##oki
##گ
barely
richard
neither
honor
##anza
picking
172
varied
##nged
藤
##ttering
##gley
##zaki
##gue
innovations
barber
##kers
##ross
##yan
sustained
##tar
disputed
proudly
##nche
mole
examination
vaccines
##bola
respects
obviously
factor
scenic
information
##aj
investor
strongly
arrangement
##nzo
resistant
rider
bargaining
pp
##lge
##里
sue
twilight
word
wig
shankar
##zog
senator
celebrations
##rval
unrelated
780
litres
does
##court
handed
950
servers
##ite
ara
chandler
hays
cake
clarity
cock
kid
wishing
##mine
レ
##ning
screaming
##侍
∈
##ache
88
bengal
avery
##yes
buff
##奈
nightmare
##sma
rely
##ª
##phones
subsidy
indoor
##ous
comfortable
nikki
##10
1935
##gold
courtesy
daylight
combines
##moto
percival
##ction
##zon
hasan
##ct
red
inaugural
verse
##c
bro
gretchen
decoration
streaming
##³
advised
services
laser
confirm
##crat
58
supplies
awareness
##elis
nigel
mab
##rmin
vegetation
##ki
indicator
jana
unified
##ulin
##meter
mural
checking
##⊂
pet
adherence
soothing
cars
##edge
nothing
sculptures
networks
##մ
##uge
scientists
ན
excerpt
quota
##agne
##hana
informal
##vent
ax
ں
##zie
lucy
satisfactory
historia
hostel
hahn
##ts
##buch
glacier
##cz
এ
verde
##£
migration
gs
innsbruck
finishes
cocoa
##agi
degrees
aspects
##24
placed
##主
exhibitions
##nor
##uli
##μ
greatest
北
##gawa
riders
sturdy
interface
unveiled
frank
relocated
toro
##pers
spoke
monsieur
decide
etudes
##₍
dream
##宿
chow
##～
copa
mg
##torm
prolonged
cost
sally
##sler
##raya
vinci
christophe
cecil
flyers
cheap
lest
##த
wrapped
maple
##hic
east
costume
deceased
governed
transports
##fly
com
##oft
elected
brittany
##iani
boundaries
advises
biking
expand
##14
alvarez
ع
##kovic
maximal
faster
organisations
drinks
##պ
tian
caution
131
impatience
storing
##dina
received
anchored
rot
##ing
marie
ramon
##tro
alcohol
prompt
influencing
carrie
##own
lola
show
lacey
cathedral
##mental
robin
lacking
ezekiel
##turing
##iction
stuart
dated
##ock
##sett
rag
##bund
stanza
offshore
retains
க
pop
anonymous
certified
thy
collective
westminster
##ana
yi
##ィ
carpet
hana
dame
rooney
fleet
##佐
松
power
##ling
##lines
ச
goo
governments
interactions
##cu
##！
##cent
clicked
montagu
qualifying
##hend
collier
火
##neer
##ener
cf
imminent
thou
##ugh
##ico
##у
excuse
ו
originally
ィ
##mans
treats
mum
##ization
##23
fortune
rigid
messy
clinical
roc
hollis
##zumi
miami
217
劉
functional
##down
##ifer
##wt
ursula
precision
##√
##₀
damon
hazel
layla
##ife
gina
##ca
impacts
##phine
intended
nancy
##liga
cedar
fought
##ァ
##6
crowds
prepared
reception
chicken
must
##aris
kits
protected
francois
##陳
largest
315
##iness
integrating
sore
##neas
appropriate
hires
attic
sheets
brilliant
η
##chu
ashton
##ssi
gaston
dashboard
##it
grabs
eliminate
1843
intricate
marko
report
incorrect
stare
facades
##ュ
##gata
railway
cope
1782
##itis
aimee
hopping
stan
caretaker
tables
##tier
ralph
phillips
existent
weekdays
stepped
chop
і
trunk
##rada
cafe
tender
##selle
##ods
tuck
tracey
π
##gum
commit
modifications
siren
»
坂
##lining
sonar
ip
richer
satisfied
##gy
nouvelle
##worth
militia
hook
##atin
identity
simplicity
physician
histoire
archived
spice
##rag
λ
truck
breakdown
spurs
pronounced
##ph
revision
coventry
ordered
manual
gulf
##eur
machines
peters
03
einstein
ส
courtney
whitehall
herd
bram
novi
cartel
出
##rith
recess
follow
ray
guo
would
##դ
आ
##瀬
##dler
##we
personally
credits
equipped
anya
clauses
р
##tary
hour
gates
bridget
desire
##tad
چ
##~
180
seth
replied
archival
##↓
kung
politicians
##jack
##gli
method
##ide
כ
stones
secondary
19th
jr
training
##ง
notice
activated
finally
league
brazil
proposes
##dome
intent
##raf
tehran
–
meng
1768
needy
##か
opposition
altogether
harmony
unusual
b
ipad
##yn
##rte
##iques
insulation
х
drift
⟩
americans
##spar
##gr
camilla
advance
musik
245
deng
پ
spatial
responsibilities
genetic
oral
acacia
powder
##dorff
##ie
160
reservation
harmed
mick
##plex
delle
##rable
tc
##laze
manufacturer
applicants
##ལ
plates
writes
spread
mental
push
ancestral
##chaft
michel
mmm
ᄊ
accuracy
holds
definitely
submissions
further
loren
##ying
curriculum
plum
##dale
hamid
##ʔ
utc
²
##₱
faith
cluster
pinch
masterpiece
contamination
additions
ahmed
evaluate
fis
overnight
203
offer
roller
##fer
gives
attached
ʉ
reasonable
##ders
18th
204
##dio
eventually
00pm
caller
##stic
##log
army
##unda
rid
scarlett
continent
##haven
wu
restaurant
tobias
##jana
##手
block
##ishment
larkin
preview
withdrawal
##コ
eki
lauren
anywhere
condition
situ
au
##đ
arturo
##∪
##⁻
街
difficulty
##fp
1855
shannon
half
improved
##dad
unavailable
toni
##dorf
mountains
##„
bother
##fk
confirmed
immersion
##ics
focal
internal
##7
##bble
θ
prospects
quo
specify
iec
##alo
11th
tactics
##ball
pip
eggs
##pan
transition
behaviour
hamilton
transferring
terrorists
marley
##nsky
40
engagements
simpler
win
##ign
##rlin
modelling
productive
samples
avon
##eak
##nay
completion
##犬
sustain
##tc
hoping
##kker
cbs
pointe
##pt
1931
nos
duel
diploma
carving
adapted
metadata
slave
explicitly
##mb
rent
leger
##‿
box
disaster
protests
##rh
mutter
relation
reel
##ʼ
logs
1775
leiden
approaching
##ᅢ
grandma
michelle
##dman
houses
solid
mid
ma
##tered
rivers
kiel
##ngen
sixth
1957
·
permits
rohan
mp
polite
barracks
walsh
division
fixtures
discussing
##gg
fin
411
patch
285
terrorism
seniors
amateurs
reflecting
##ams
surfing
к
bowen
375
volta
##rika
##⋅
issues
minister
than
tread
darby
german
performance
ball
##me
##iq
planner
nj
santo
##খ
fair
incomplete
audio
impression
licensing
wreck
extra
artifacts
korea
coe
##uti
booth
observers
analytics
##mage
raymond
attachment
##ᄃ
jurisdictions
communicated
##oman
assistants
ே
preston
##lby
liu
screening
##lers
hayden
began
nba
##xy
dialect
##cule
##ista
ike
agree
tea
ska
##zione
mp3
floating
##ep
##ulia
toys
後
fe
supporting
##oga
describing
mane
##mbs
auction
try
artistic
09
diner
sol
maris
curt
picked
##zyn
maintain
289
##sau
‐
font
specialized
marcel
##ʳ
##orestation
##cards
sur
##15
confirming
ย
location
archie
##lag
march
fur
bu
crap
nikolai
repetition
##rell
volume
##bar
sv
##あ
alarm
consular
metric
##wehr
performing
medina
relocate
syrian
##ui
effect
##ect
depot
##⇌
offset
##ag
##lena
musical
symbols
relocation
rudolf
##hog
provincial
##sten
benin
rebel
##vate
brandon
thong
limited
五
##gl
heavily
napoleon
1626
earth
introduction
demanded
july
##usia
grid
planting
lands
八
##ks
lea
##sg
barrow
arrow
##ヒ
graduates
estate
ld
identifiable
##dr
##llis
301
saul
mexico
##17
bertrand
photographer
avoids
peace
experiencing
happen
bout
greene
beak
plan
xiii
##tana
840
maximilian
charitable
poetry
##lain
##lles
announcing
##י
##德
owed
surgeon
turbulence
##o
##ue
##ﬁ
ted
analyzed
inquiries
2012
।
##nza
##ific
##t
rene
agenda
##onne
##itch
##ruck
cancelled
aw
geoff
tempest
long
283
moisture
pablo
broadcasting
##una
##™
##toy
##eto
##ih
majority
##aghan
cw
##uation
berries
##い
tend
ख
leone
##ω
hobart
ᄐ
##hul
vocational
edwin
assignments
##kka
prem
legal
resources
odin
td
##平
ラ
##jos
##i
instrumental
adopting
reserves
cd
wheelchair
taxation
##ख
nottingham
mono
##rys
##enter
##cier
sounds
middle
twice
##arat
##⅓
iconic
specification
##ndo
collaborator
gerhard
theodore
finished
apologize
##ddy
adele
##unk
##dya
sure
roberts
proposition
viaduct
usd
master
##ミ
volcanic
conduct
build
ལ
evolving
##oca
##部
##uram
##elia
bahadur
premio
lyric
brackets
##berger
regulators
##nage
##haw
li
finance
viola
bankruptcy
##words
##borough
follows
tailor
apartment
appointments
streamlined
tied
1870
##ano
buck
selecting
according
reveals
expressions
craven
liver
1749
floyd
janice
##tula
priority
##forth
##ctive
ferrer
##ю
symptoms
locally
##そ
qualified
##zzo
post
##li
centro
helena
##kim
##um
techniques
yin
causes
europe
agnes
margarita
##夏
sao
separation
##lings
its
inscriptions
linking
billion
##resh
sign
somewhere
plots
conscience
sava
grabbed
bought
loud
310
tango
##mora
rituals
sting
##cology
##cas
##rite
##⁴
somewhat
##lberg
##‖
employ
##tok
##sions
##arts
##rong
##ს
skipping
##olic
1996
bold
expeditions
##eran
ye
constance
##lz
twist
##も
internally
regan
du
##din
computing
pickup
echoing
promotional
operation
mckay
##nction
duplicate
alabama
blossom
renal
rotten
though
209
convertible
importance
เ
internacional
fluid
baths
collapse
tan
hale
##op
pertaining
wal
hassan
yeast
'
animation
##iser
organ
##ar
bottle
tampa
predict
scans
boyfriend
poetic
##ount
##ossa
warp
crete
##lism
##nsed
accidentally
precious
facebook
cu
visa
entrepreneur
lgbt
jing
operates
##lino
peaks
upgraded
significance
##lster
##車
brands
careful
chad
##litz
kingston
ー
##dlow
##iche
resident
##ades
reclaimed
volunteer
chemical
solving
yellow
₂
qi
ensuring
mao
involvement
##igo
rated
informs
trying
ware
lower
##ash
uncovered
dt
1799
optimistic
##rov
cote
provides
blake
unlikely
##ක
velvet
kite
##bers
oxford
claude
instead
feather
constitutes
3rd
forests
##zow
sul
cue
##the
ming
entered
tall
horizon
thrive
discussions
originating
loan
##lington
vapor
ps
188
into
sending
##ʾ
conor
hours
carey
##aker
custody
shortage
##anov
##act
channel
origin
organize
compiling
tapestry
tri
##lins
##logie
valuation
metro
eleanor
length
drum
indigo
ecology
##han
timely
##odon
##uppe
surprise
sauce
##ロ
inquiry
naga
##schaft
moan
esteem
meets
##ل
oils
internship
impressions
digest
celine
hz
rites
framing
joints
##rya
##50
mud
،
veil
affairs
flags
treatments
plastic
##ered
##jer
patrick
numbered
##uter
criteria
##bro
sims
misty
gardens
##mt
capitol
winters
67
sire
belle
##€
99
benedict
supportive
##き
symbolic
##kowski
bryce
garcia
option
##dos
google
microphone
sabrina
norman
astronomical
##care
##rie
##lio
relying
grandparents
improvements
sq
yourself
##eu
along
marianne
distribute
##ल
##bular
rib
##ssen
##ase
oh
lloyd
##vera
fighting
pro
horse
marked
mixed
padres
##ll
手
be
electronic
wallet
assert
countries
routine
##hee
##tham
flex
increased
needle
tweed
宀
menu
terrace
minute
##kyu
く
##tled
##rdo
industries
inspect
##ᵤ
physical
coating
##ille
governing
relates
seat
pic
teaching
mandates
robert
ingredients
oven
upgrade
##eia
fly
permit
##elman
header
grimsby
arch
coordination
81
toronto
rigorous
employment
downhill
њ
becoming
comparative
logistical
mimic
##ald
cora
clever
austin
##acies
laguna
##₎
##stis
##llas
site
therapeutic
expected
puebla
ম
selma
##ʃ
flowing
scaling
furthermore
##ɾ
##⁰
recognizing
purchase
divine
##aud
even
##dust
##alis
mrs
filed
##wes
##ags
testing
collateral
##yce
priscilla
##quent
ी
parchment
branding
items
hearing
ℓ
⋅
bullet
##ت
january
##п
##nto
##ح
christi
fc
outright
ricardo
##ャ
≈
##working
##omic
##ony
semantic
continues
მ
thereafter
##pic
my
severe
##virus
##lch
tenant
##tarian
##km
##xia
create
raft
tate
##kata
reunion
##osh
outcome
summer
##cco
υ
situation
involved
galaxy
1837
##berry
augusta
##ium
merger
stop
ས
久
besides
aerial
##cor
##lvis
ked
##ivist
1713
##42
reveal
##overs
##沢
##abad
##wski
##hani
77
discourse
early
use
##古
outer
##tia
proportional
poly
joint
decisions
##hang
1970
##ege
monetary
##iii
##♥
filtered
##uled
sterile
ص
oliveira
##ride
perfect
kata
milo
##ex
survivors
eyes
obligation
}
given
nee
crises
1798
emir
ar
align
##age
asking
polling
alternatives
1707
visionary
##hard
##erson
##ant
mw
stolen
ventura
road
mosaic
remotely
##ße
seen
compilation
##oa
credentials
##evic
nike
ハ
definition
crowded
derrick
sensible
helped
elliot
##guide
##«
##3
revival
counted
controls
গ
dub
complement
205
safari
cum
囗
##gong
nolan
##kis
ornamental
発
worse
rush
##iol
1741
##cie
lawrence
##zy
fibre
helmets
##བ
tolerant
##pour
##ulent
ceremonies
##hiti
georg
##ble
##ily
9
positively
sum
scotland
films
oswald
variability
valet
peers
##vish
##reus
honored
elevated
##ob
dire
intentional
120
##尚
##艹
fu
##vern
ג
marathon
geraldine
behavior
##pton
xp
overs
pd
flavour
##nberger
maxim
ottawa
renewal
##ovsky
##mis
##ished
although
##rnet
ე
皇
praised
##grad
genes
##hes
their
rouge
##ncy
hike
真
weekend
courses
rooms
1736
violations
forty
adobe
##ɹ
parana
##vity
##ɒ
inspirational
##kur
##ே
##power
overwhelming
##cured
devon
mayer
##bol
##mut
acquire
incidents
##nni
reich
api
when
likely
columbus
terri
brandy
gardner
##star
##ilised
sg
##ilo
style
в
populated
lac
homeland
signage
patron
supposed
kendall
parade
##zed
expense
freshly
indices
##co
connection
asa
¨
と
upgrades
136
25th
subcommittee
##den
240
##wd
oversight
concerned
\
##olved
##rant
##yla
moved
danish
guadalajara
listeners
monster
attempts
##trust
1867
impairment
olivia
ᴰ
unable
140
##gur
filled
##oh
2021
accelerated
botanist
##eron
##dgets
##rard
540
argument
学
notified
1755
deficiency
1735
braden
technological
infections
johanna
##len
##ذ
##wick
calming
nedra
olga
ways
lawyer
##อ
everywhere
balancing
archives
issue
ones
encourages
2004
commune
cooler
forks
neutral
infant
¦
ᆼ
##laise
carl
##over
exciting
pathogen
awards
pushed
now
ever
authors
##llus
stephane
unesco
infection
severity
##lius
magnesium
##uga
平
set
##っ
go
##isen
##χ
beijing
acute
wiring
reader
thriving
covers
83
##stra
##lists
jenny
##abi
deposition
entrepreneurs
##jian
graz
dew
blu
adolf
##jee
##il
190
##亻
pizza
m
fang
explore
sized
plaque
waters
##etano
renewable
paige
deficit
##org
##rri
teams
##az
banda
##rne
economy
buddy
chapel
reasoning
situated
securing
assumptions
golden
lever
##avia
ད
1889
cape
is
eine
clarified
##mas
burton
##xes
bert
wherever
ir
protocols
##ited
ℝ
香
##der
x
clan
britannia
congo
770
hq
##章
dock
1948
designs
viewers
willis
##cted
speeches
bosch
##lity
backup
ツ
seeking
##lova
disk
206
citizenship
f
ashby
andover
##る
fern
अ
nurse
megan
འ
models
mallory
confused
tq
bar
announcements
##rton
##urance
canceled
##beck
eileen
answers
christmas
##ju
ज
##rz
##lete
switched
##″
photo
horne
##rage
work
campaigns
##ssing
##chee
cherry
members
boutique
jersey
##work
bus
fi
unauthorized
trouble
inventory
東
habits
##lston
##}
##mist
##ried
##achi
declare
##lth
helps
purchasing
gb
##ᵢ
hosts
imagine
monte
dq
δ
travelling
oregon
##宀
valor
##verse
1946
##tive
sanctions
hunting
trader
1746
mast
doses
##ity
posting
630
ratios
1914
rented
1
flyer
surname
##vius
timing
ɲ
prevent
1725
##dhar
athlete
##anne
hector
expenses
suffered
##₁
##em
##hae
allow
ep
val
tatum
##gues
presents
protection
offensive
##ي
fibers
dependent
##β
ren
##umber
##ike
refusal
george
younger
##zer
breathe
piloted
##47
notre
mesh
merry
thanks
temperature
charming
yuri
##tion
hundred
##partisan
foster
nods
ability
##hood
##user
森
favour
coco
designated
invest
luggage
calls
gauge
##ga
##te
apart
##ₘ
colonial
worked
knew
##bush
have
##rdan
viable
murder
ᄃ
collaboration
afb
hack
##kovsky
returned
nueva
creations
vo
uci
寺
##ators
##asi
##ocating
##tu
marquis
mohammed
л
stout
bury
telephone
##ᅮ
##ぬ
##ে
##elt
##מ
##hea
##ை
adjustments
completing
##ས
##谷
harvesting
##gau
##₇
hearts
falls
hip
##wi
##53
regime
##oran
tens
##ggio
##ial
graham
manager
##ang
16
sport
ambition
arc
tourist
##mbre
var
##eta
es
##gas
lately
##nova
##wear
disease
§
##ლ
1936
error
hometown
sergeant
scandal
shuttle
medicinal
number
circuit
shield
previously
##耳
slept
##bell
charlie
##cko
fishing
##ང
189
fantasy
denny
narrow
410
ˡ
rank
marketplace
##ʷ
sensor
insert
jun
crater
artisans
##レ
shell
fran
##craft
surgery
jae
costumes
##via
harvested
nathan
permitted
880
71
hits
##iers
##enburg
subdivision
blogs
lifestyle
##alle
fundraiser
popping
portrait
judges
41
##stand
dortmund
lenny
negotiated
owners
theirs
##不
strengthening
performances
##zd
cleaner
sooner
officers
sidney
ad
に
##raph
##⺼
##ars
wandering
jazz
episode
feet
finds
inspire
cv
∧
surrounding
##rar
##tour
##liner
timmy
##cana
##tage
##hony
brett
lacy
illustrated
repertoire
maurice
zur
##rsa
##urne
introduced
##lais
nick
##ভ
##sus
##ک
##ヘ
##ah
radical
vlad
april
sham
##vron
precise
amour
sober
##bourg
extent
arranging
objects
token
discreet
inland
35
1910
government
flat
##nl
##ɬ
##mbled
ks
##arium
ゆ
##dt
##a
tagged
includes
##eration
girls
jc
south
pacing
उ
durham
¢
alpha
caps
##忄
steering
##rle
分
voss
gold
digital
##m
deborah
louis
painting
##¼
##น
outskirts
1896
##nstein
##jun
regimes
psycho
beverly
1856
dragged
resolution
te
palo
phase
backdrop
face
revised
##lib
marina
vital
weaving
arabs
guillermo
##culture
##grin
##lim
join
regulations
abd
promise
unite
crew
monty
##ate
300
pattern
cocktail
daryl
##qual
penalty
##ض
chairs
##rrell
being
poverty
##پ
##lani
disposition
zack
donnell
offers
ob
kw
evolve
moss
##low
##folk
agency
gloves
##isman
orbital
focuses
finances
##ب
##ider
1839
karma
piece
##ij
##ious
##大
##ising
nice
雄
supports
wild
nave
sung
stays
357
##ility
wing
hispanic
##cies
borg
spouse
dal
sarah
v
parcel
##ʋ
1771
copying
intends
reza
kb
brasil
inflammatory
turned
quick
1769
captain
curious
ल
waterloo
##hema
##sso
taller
fra
stained
gin
lb
statement
spade
##rup
##ification
uncertain
##য
##hell
cheng
plenty
graphics
##46
detective
##oke
ᆷ
earned
accessible
##ving
nat
##eno
495
lasted
r
vivian
##ᵒ
senate
relations
welcome
with
##mic
retreat
subsequent
##dim
##hiko
missile
outlines
consortium
kelley
a
ω
radius
ste
rachel
##pot
exhausted
perfume
wanted
##ড
sha
mutually
##上
catastrophe
pensions
##²
##wk
##skin
##9
main
ு
tap
brandt
operate
searching
messenger
howl
janet
comparing
organizations
holly
assured
lausanne
haley
##nist
disabled
grow
scenario
##uce
hill
##zz
ᅩ
units
matteo
ss
wyatt
##ratic
revolution
evicted
database
camp
##mini
risking
##ik
lump
partial
chips
runoff
hygiene
##oia
##storm
rhea
hero
space
principles
romantic
skipped
##puram
##oto
##ν
bari
everyday
raise
balloon
exploitation
grandpa
##coe
##bles
##par
whole
##puri
金
displays
camel
mind
auf
bf
sinai
226
##isson
##า
##00
tenure
referenced
1968
stupid
##jm
riley
610
##ntine
rna
context
filippo
##go
ج
soul
hampshire
demi
foo
hilltop
##⁹
newborn
ت
jai
literally
##houses
compares
blocks
stat
rocks
espana
barley
##sville
##bee
discovered
displaying
##aine
##ric
prefect
ritchie
bulb
convention
arbor
lanka
political
##bah
##ura
headed
swore
##ead
respiratory
##to
##bour
dane
3
championed
pc
butter
##pl
>
rays
1703
equipment
string
{
shortly
eds
1815
bonus
charts
##usa
vines
anand
current
matilda
nomadic
ᴺ
##dus
brent
energies
voices
shear
62
simultaneously
．
literacy
##cho
hunter
hemisphere
##dor
columbia
##buro
bob
##dote
‒
formation
∘
palms
1737
rossi
lot
relatively
##名
hare
##uka
council
climbing
stemming
nest
hobby
mana
afterward
י
rory
প
morton
tad
haute
##500
averaging
handbook
tak
四
1726
woodrow
##ine
aubrey
finishing
mckenna
bad
whatever
##burn
surprisingly
piles
xavier
ₛ
dark
##hill
baghdad
jamal
گ
fundraising
ᴵ
canada
##lica
##ev
い
shirley
##tty
cookies
##∇
israel
##sser
shoulder
vivo
##dur
@
##sis
lid
iphone
##中
nearly
##inas
##太
true
##ndt
former
##ও
diseases
estates
outing
amazon
consume
pleasure
aria
308
customer
ছ
365
##ass
headline
criticism
colony
1897
link
##ological
meter
corps
islamist
publications
benoit
lumpur
##pres
##ε
emmy
phil
##zawa
##har
selected
exercise
morning
fda
insights
susanna
withdrawn
boundary
koch
lotus
##oy
natal
textures
555
cutting
salary
##ع
1675
##ᄌ
involves
brno
skull
##chan
gee
##rge
experts
immediately
appear
turin
rewards
##в
cheers
mutual
coming
162
democrats
booklet
chung
burma
debates
coma
##ala
##ea
yale
believed
deter
##士
despite
survival
##加
cult
##ま
enjoy
chaos
##xon
##llum
closely
ibrahim
##aging
donald
piazza
condo
moral
strains
surf
109
dakota
1993
conrad
xx
##lav
র
##plane
274
##nsen
jimmy
occurred
ʊ
nes
##feld
##onis
1879
efficacy
##oper
garth
dad
joins
##ョ
##eman
emotionally
##y
ր
common
meadows
##oni
arrangements
##itz
tack
timber
kennedy
bergen
##外
##sit
122
##hc
##cel
yearly
##yler
osman
periodic
##bby
polls
ɛ
axel
boy
##cuit
margins
##iom
mathias
nr
swimming
##ש
##→
income
alla
##itate
talon
novo
colin
prints
doo
lass
exact
##伊
##dana
reid
shi
payment
2002
##ager
clara
1950
oder
anything
sentiment
recommendations
tissue
learners
sms
##む
winter
##オ
mask
##oise
##rna
##ava
fruits
##personal
##キ
##ii
arrest
##rrick
stabilize
jonathan
##een
identification
dig
1880
†
##nee
servant
locker
fault
watched
palestinians
justine
rows
lisa
guerrero
155
stationed
##pia
pine
##на
mechanics
##aire
chris
nan
282
documented
fiat
##崎
⽥
##fc
resolving
agreeing
tales
priest
beck
##ann
compare
geoffrey
##var
noted
mess
hart
##þ
##gling
ל
conjunction
empowerment
breaks
whether
evidence
anders
1817
jewellery
##aja
martin
function
achieve
meal
m2
explained
congress
teachers
1857
somme
bolton
oriented
script
input
1814
arctic
wii
tablets
##scent
spaces
delta
ng
م
##proof
replies
80
##jar
development
##モ
utah
##ized
##yer
##lus
##lub
josef
linen
##nden
packaging
susie
brooks
chance
three
graphic
capped
flock
logo
##wed
derived
jewelry
trek
ns
loans
29th
slight
praise
##et
flavors
europa
nature
burst
changed
click
can
kaitlyn
admission
paid
explaining
engineer
boyle
##paper
##м
spa
southwest
##skie
hugo
che
frequent
##aw
g
troy
segment
shu
fixing
order
randy
ranger
homo
weston
ira
⇌
153
wine
inn
##tom
##position
medicare
contributed
s
##zin
##erina
fellow
earle
retrieval
away
connor
conversion
shelf
viewed
coordinating
axe
##樹
julio
per
##ancy
fork
renee
impose
technique
asks
286
##rase
##ɔ
mal
annex
lyrics
jerry
structural
##zone
##ส
furniture
coa
decline
3d
##my
##ul
vs
quinn
##holder
vaughn
wendell
##quil
millie
##er
##miya
distraction
trainer
##sch
sa
55
expired
hagen
approach
##nts
rochdale
##ᴰ
##shu
karin
##ater
uta
##agh
finish
##ˣ
τ
brussels
##ale
ण
##wen
auxiliary
occupants
##uki
##44
sister
board
valentin
improvement
テ
eagle
##jali
mob
##omp
##ى
tamara
trip
maria
remote
##bie
##rose
continuing
mini
glasses
friedrich
webb
flour
hear
##os
sera
generating
diplomat
##bedo
monument
##gin
##ako
243
vancouver
incomes
commissioned
entire
voluntary
##bius
kant
reg
ho
adventure
route
ɯ
##ira
750
ⁱ
gradient
voters
##ow
pilgrim
households
ang
selling
sly
pac
analog
recorder
wil
##ᅥ
ethel
risk
##him
ˣ
##ष
##enstein
dat
##ials
##ols
ha
wisdom
##eke
satellite
close
א
joseph
##ba
cities
stations
refuses
##onate
doncaster
kristen
institutional
moshe
symposium
##ƒ
across
lay
##type
tips
ant
##thy
dutch
##dates
snacks
music
թ
外
##zing
rita
hermann
##uer
definitive
consequence
##int
##hein
knot
##tly
raja
234
stats
lenin
gibson
1767
system
1718
##media
##rnik
kenny
remind
##lten
vernon
##ᶜ
the
jacket
部
maggie
##itia
tidal
her
moreno
indie
comparable
oak
rotating
luminous
戦
441
##অ
##ois
##tees
bra
rover
likeness
##rating
##lovic
##ᵗ
ح
##½
fen
histories
tasks
infected
marine
dunn
1790
gregg
establishment
astronomy
peninsula
ز
listing
malaga
]
glad
9th
tier
1886
cry
##dern
charge
##gna
elvis
##ね
interpret
mortimer
pull
ballroom
rann
words
##ه
week
##pore
grim
1822
plea
requests
atlas
lives
jupiter
self
##α
sad
600
##lit
##jad
marble
literature
##21
##bau
ne
redistribution
1540
alarms
biodiversity
capability
##lowe
##ɨ
alignment
different
ᵥ
driving
trigger
##roup
sony
1750
muse
file
##،
103
overview
miller
mia
serie
640
##taro
##sky
just
rude
wait
##oli
gi
plata
stands
ff
compatible
##海
visible
memorable
explorer
ₜ
gotten
900
elmer
orr
narrator
##cave
lived
relevance
existing
##ptic
##མ
##立
ท
##ange
widely
##ives
blow
620
disagreement
modern
##tou
module
版
justin
shire
myths
##り
commitment
##erus
##cide
highlands
##sty
plate
gordon
republic
##vy
neue
editor
##udy
mack
served
allocated
##cta
##英
presenter
nut
ankara
ʿ
leak
choir
peg
bypass
##oles
183
on
secluded
##tet
leg
bachelor
stacey
went
##bilis
repay
once
##h
ひ
sensitive
##ipe
1894
##yck
ᵐ
democracy
illustration
miguel
##nat
##3d
splitting
adopted
profound
fringe
##iman
yvonne
vip
aboard
pursuant
borne
##vere
delivered
imam
blues
gaming
##ʀ
traditional
kids
fall
316
vt
streams
by
solitude
1688
laurie
1697
exported
receipts
##ghton
##sur
##ntes
1972
directive
species
circling
##board
strategies
attendant
##メ
inspiration
lifetime
valid
akin
87
##set
essence
##sted
societal
339
trade
naming
price
1610
##illo
##क
charles
338
return
ʼ
conflict
##都
##mina
nominal
sage
transparent
buyer
##志
stance
##pole
salle
each
pang
##86
municipal
julia
##vus
ed
supervisor
##ম
298
intersect
pay
baba
phased
supplement
backing
1832
commissioner
mackenzie
pie
cemetery
##ии
##れ
decreased
daring
bernie
rules
1709
governor
overseen
edinburgh
2005
bel
##lf
collaborating
##nius
ku
##anta
##ा
2017
parallel
enforce
croix
stil
hive
living
##ova
辶
high
rumors
allowance
museums
social
ை
tickets
experiments
##ワ
崎
##shore
liang
organization
1909
##jing
plateau
1977
pierre
233
hess
turn
alright
instance
←
evan
水
adjust
1699
tres
bop
audrey
flying
1629
template
##ando
extraction
##ei
shipments
illustrating
##⁄
industry
##side
18
river
monthly
shame
##flies
session
unlock
blind
dusty
romero
classic
##gia
combined
culinary
り
shen
##oe
farrell
charges
##ture
derry
##bh
nikita
mere
underway
tor
fully
秀
vale
wander
##sey
##vier
utilizing
ד
aiden
maximum
sides
merge
brake
rn
1781
##տ
electricity
procedure
lore
black
assisted
agra
場
emergencies
##oric
run
childhood
shaping
greet
advocacy
towers
##ach
##ured
##pac
##kel
sachs
contacted
##eng
par
explored
posture
232
─
rule
valerie
practitioner
1862
risks
florence
##昭
##ult
roles
1847
darrell
motion
newcastle
yao
##rvis
graffiti
lance
sunni
##beat
bit
bray
regent
brennan
nazi
arranger
06
swat
punt
amar
revenues
##mada
injury
assemble
drag
##明
trio
curated
device
ron
ua
shepherd
48
sandy
jackets
prime
kathryn
travel
madrid
cerro
surrey
she
##12
sick
##sian
agreed
percentage
##wind
without
dar
counsel
##ran
anwar
phd
symbol
progressive
representing
dion
aix
##hal
ve
quasi
loft
##ick
⁵
breaker
dow
930
assignment
rain
禾
distributing
feminist
##ш
isolate
dennis
gesture
weaver
seismic
##ہ
##bra
custom
precinct
errors
gaga
conventions
##chi
ি
incorporates
bred
eight
rhythms
##ʁ
##ri
##hp
academia
##nic
banco
andrea
cancer
harp
translation
##ening
rosen
concentration
seem
drops
##plin
宿
optic
futures
fund
coupe
of
redesign
man
result
##宇
##ћ
α
princess
##พ
broken
1885
movie
leonardo
##line
buenos
##ation
walker
corp
##rder
##rran
assigned
howard
mining
potent
##न
##ues
##道
kind
crow
47
defendant
hood
less
##iv
370
couldn
stockholm
##grave
##le
##氷
supervisory
wrist
memory
ryder
suggestions
cater
bonn
##master
vulnerable
locate
conclusion
rough
slam
charlotte
tonight
ignore
##eva
##eyer
1789
1994
##oin
extensions
publishing
##aga
##nik
##（
assumed
##石
##せ
lifting
馬
soldier
annually
letting
carmen
451
tilt
##bang
shake
drug
dental
aid
unless
##ᶠ
##cos
norm
hidalgo
urges
pour
1728
ে
##tree
poses
looked
##tzer
bets
##」
##´
day
contributing
mo
##bu
lew
quest
colt
##istic
natalie
residency
##tist
barrio
proportion
##थ
thank
kv
meredith
stressed
drive
streamed
diplomats
sessions
transplant
sub
ᅯ
hind
yan
fraud
mariana
repeatedly
barnet
##riz
15
promotion
backgrounds
nationality
mansion
joan
##cheng
jon
##inia
published
blanc
##atic
translate
sierra
##omy
milos
britain
##rit
penn
magical
panels
luc
##vita
alternative
landmark
achievements
sped
##umb
550
小
check
triple
lions
45
correlation
##pper
conference
height
democrat
mandir
elise
provide
##path
1903
##ens
gonzales
skyline
designed
matrix
##rger
##ར
election
standing
luna
professor
sleek
##比
ₓ
##ろ
census
observation
##ayan
ollie
##ツ
##jord
rite
mps
141
corner
weekends
鈴
##tick
##aring
branches
candy
cardiac
1853
1733
##ft
giuseppe
dispose
mala
express
carp
##ntino
15th
denver
stick
jules
peyton
reflection
1927
acres
grove
eddy
978
exclusively
##dict
##│
room
godfrey
speakers
##bane
##र
##ச
##ා
consulting
##ais
##pe
##harat
salem
observer
reflect
reliable
detection
lift
papa
crest
##mum
activity
##ids
inner
iq
perception
shapiro
titan
maximus
clear
##rba
generous
ტ
rip
motto
bradford
##rting
gus
##pire
ter
labs
dani
currie
konstantin
siege
policy
##辶
##gis
fifteenth
##eft
ᵣ
faa
yahoo
japan
lips
##yen
initiate
##ɲ
valleys
##wine
det
su
##sham
lama
##sle
exclusive
™
pages
risky
resort
##tman
cut
##imum
76
bamboo
##khov
##ɴ
skirt
baked
ه
prop
companies
roy
awe
##acion
contrast
daniela
##deck
turns
alfred
builds
barcelona
rome
##ido
lantern
desperate
scouting
josh
final
legislation
enjoying
shape
ₘ
madison
##patient
supervised
lei
##ax
vest
committee
measure
usc
castillo
##kling
ds
stu
pole
uber
seas
1797
friend
beyond
pilots
hand
sunrise
generations
etc
ধ
larry
html
##mah
typically
##ノ
dali
u
too
##jak
respectively
##tors
frustration
##bag
assure
ζ
##zquez
currently
civil
clips
marc
む
gp
dans
bjorn
teach
kicked
aim
exceeding
corrections
dragon
ø
traffic
##von
##yu
telling
1620
liberal
34
requires
a1
1644
trois
menace
term
##gang
07
bunch
ry
proton
rock
fog
repairs
complaints
amore
##so
vaughan
testimony
environmental
##th
##amp
sap
maj
##mble
1656
freeway
steiner
262
orange
##rice
blamed
1998
q
##ego
storage
extended
ː
aurora
tuna
sharif
margaret
track
berger
snow
jail
treating
ranch
##200
阝
হ
##eed
knob
garments
persia
tried
interviews
reach
ledger
##out
っ
##rland
freedom
playground
mn
funds
rugby
##gers
##↔
cough
relax
simple
mani
afghanistan
georgian
male
body
##gence
##sion
王
##ق
betty
##tore
grain
happened
idea
arena
blessing
##au
的
##ible
##biotic
pu
lone
cameron
102
##bo
orion
尚
##enia
##ose
##yk
comment
strength
lust
consists
##relli
##37
lied
josephine
tracing
aura
miss
vito
hardship
gallo
tally
mb
##oire
based
quite
item
basket
introductory
signal
specifications
period
arun
paz
drones
learned
fiscal
朝
menon
ethics
consolidation
##dez
##မ
populations
1783
##pool
pt
difference
lana
gustav
cedric
passionate
##orin
ten
rode
recipe
##pace
vincenzo
##zhi
katherine
bernard
rex
renowned
manila
mandatory
##bolic
roma
##otte
な
keen
pricing
ট
improvisation
##45
##door
##∧
и
engaging
para
murray
advertised
p
23rd
332
forgot
bedford
chart
thereby
##hop
2008
strange
kaiser
1714
royalty
##₂
##33
mountain
collecting
honors
##分
1685
enriched
##lver
##θ
##zation
##ma
span
times
senators
mateo
links
iris
##face
connie
##llet
designers
bile
arguments
minority
##ker
ₒ
koln
metres
median
damages
recommendation
beer
column
##mian
sexes
##行
barre
le
ward
##sai
galerie
mood
元
太
##cea
keane
thames
dec
ahl
acknowledged
themselves
pavilion
silva
wei
lenses
sciences
sep
perrin
accommodations
vague
##eber
larson
imagination
г
nk
parks
##pping
cancel
##uing
reins
convenience
patti
##ice
》
ュ
##olin
underwater
##hesive
##kow
enclave
##using
never
herald
faust
required
##ø
structures
gateway
##rral
career
थ
staying
##auer
community
morgan
##vah
concept
bedroom
1632
stanton
white
circulation
byte
colombia
piano
threats
luz
yacht
accounts
regulator
angelina
tal
bash
will
bats
##nad
legislative
respected
##adt
outdated
easy
##park
jessie
ʰ
lucius
##yat
mead
##uh
warming
mortgage
dialogues
bare
ignored
woodland
agent
consumption
inconsistent
mist
##tler
##ד
rare
##cini
ᅢ
##nta
books
rendering
experience
tiffany
regis
は
assembled
named
intact
banquet
revolutionary
##ふ
sentences
pens
##oons
polly
appointed
1913
bridges
policing
greens
hesse
handful
reforms
investigators
biology
##tron
##es
crossings
triggers
squat
alan
continue
autonomy
merlin
forged
##а
verge
ambrose
##hay
love
armando
curiosity
nina
proceeds
##65
##tel
barrel
pitt
pivotal
thessaloniki
plaza
barbecue
##otto
writers
##gpur
minimal
pathway
sponsored
##ウ
strongest
##etti
pantry
ke
bag
prices
founding
tanner
武
fk
立
tito
ʂ
##off
##llary
nitrate
liz
##rom
levy
marius
madonna
sums
##listic
embedded
##alia
suppliers
recorded
provided
citing
societies
offices
proprietary
layers
##uo
trailer
clients
、
serious
rower
⁸
mount
volunteers
respectful
therapy
##hak
##ttes
several
signatures
cy
effective
##lev
logged
platt
henry
buffet
б
##ess
tactic
dino
lc
championship
concluding
##lon
##eger
lu
1952
mariano
neat
adjustable
1990s
finland
attendance
##lessly
##kot
eng
von
##ster
##sche
robotic
healthcare
##rica
olive
townsend
hitting
52
##ves
1926
tex
micro
##ན
##rak
##vb
##lik
##dron
spot
losses
folding
human
finn
##ching
phones
muted
##anus
pavel
contingent
list
hume
enrolled
##vio
donna
supplied
settings
onset
denis
references
##ह
##lita
artefacts
equally
erik
lodge
variations
audit
##ela
intensity
usb
##dara
bros
copenhagen
matters
additional
payroll
lion
tolerance
stadium
reconciled
lowe
1744
ludwig
firm
lau
gestures
anytime
holders
inside
tr
louie
race
palestine
rhode
looks
##←
##rst
##icient
simulations
melinda
positioned
instruments
1923
##tted
alert
##hot
endangered
##ulated
ט
dome
##vian
##ος
##di
shareholders
privately
techno
##ians
##ᄆ
levant
reporter
juliana
folk
overlapping
vicente
gain
ф
predominantly
johann
##aka
invalid
##hri
layered
informed
rica
sipping
hierarchy
spirits
থ
##brook
defensive
panic
mets
##oko
##cultural
frustrating
##ace
proto
##hale
institution
##−
##cl
##sby
morocco
##kins
##nson
##ieu
ups
111
mandy
rapids
penned
30
missing
95
##－
williams
名
##rini
##aman
divers
presence
anti
健
##vill
active
net
isabel
zaragoza
rai
october
##{
marital
##wn
##ke
stalls
attendees
##drik
1960s
ᆸ
claire
diana
##rano
960
##pin
##itude
##zano
##rian
##mund
##チ
reduces
266
##ere
kamen
apr
feedback
genres
indicate
田
maritime
_
勝
##金
most
robe
powered
chu
pipeline
cavern
peat
##ggles
##rative
##xie
taliban
ا
flavor
benjamin
genealogical
combo
protections
##gh
pen
display
##oro
1920
willy
portal
##ele
water
zoom
242
brit
ripe
##para
##ffe
outcomes
assistance
pub
##sto
堂
を
⊂
氏
marino
cheese
vegetables
caribbean
robb
ended
probe
##onga
manor
##pins
totals
fuse
bellevue
stanford
cove
rae
photograph
reese
software
##wice
clemens
jorge
commons
mer
punch
##oys
bites
##rah
##enay
mali
sw
##tta
##sack
denied
cleaned
kari
lawful
##rwin
gill
greenhouse
embroidery
##1
ferreira
##ths
holiday
demographic
##nets
ए
##民
##vet
francaise
paved
original
persian
hua
##jou
##iko
casting
car
versa
##ns
阿
maps
dudley
os
about
mike
##dai
##ɫ
likelihood
holmes
##mp
plank
##udi
stuff
##erton
confidential
speeds
##dda
manny
cannabis
canal
hydro
visual
##ව
dramatic
ᆯ
noticed
diagnosis
stunning
##ի
ja
massimo
guerra
##ظ
##rest
instructed
##gled
documenting
rev
##uck
brains
wondering
##介
males
outlet
nano
earn
aircraft
repeating
tore
simply
dual
hay
##lich
##terol
emphasized
realm
edmonton
institutions
executed
sensitivity
days
##antes
consistently
epic
dessert
1820
slide
exposing
frail
##博
videos
ethical
##©
##>
ß
##he
nervous
artemis
coach
##仮
##力
mass
transferred
speak
resource
analyzing
parole
##ᅳ
earning
##ben
##_
##lift
##lov
##jn
beech
riches
##bin
integrate
freelance
extension
↔
theme
masters
##pus
##maker
monique
##≈
containers
heinz
##ra
prospect
##示
ர
##sitor
##¶
avenue
bali
##nty
those
welcomed
detected
##cup
##ces
##ivo
##zar
deco
m1
##リ
spur
pocket
loading
labeled
geographic
instituto
feeds
approximately
##stan
earnest
success
##itic
elegance
catholic
خ
resist
new
blah
##lm
mapped
rang
christopher
articles
##uber
し
##ysis
aroma
##als
##≤
tribute
warwick
二
qualify
sample
chess
immigrant
towards
660
##ciency
measured
amateur
suicide
foreign
1766
protocol
salmon
stigma
##禾
##б
recovered
hillary
heel
learn
tour
##軍
indiana
attract
pottery
121
seminars
##al
cooper
##ali
great
mechanism
funding
##bered
terrorist
segunda
corona
च
rooted
kunst
##ept
ץ
##µ
camps
peterborough
##±
casimir
domain
damian
variables
used
dash
##bot
bands
278
↑
transfer
cooks
freddie
highway
soup
meditation
club
viva
ग
##秋
##gan
##res
##ites
asian
##rden
tar
joyce
里
needs
##sun
nestor
https
##ini
rage
##list
伊
paula
nonstop
sparkle
assistant
diva
wolff
##56
iii
hair
delicate
equity
verdi
prefers
discover
trades
concluded
⊆
##rid
skyla
made
allergic
##rly
##bre
aqua
citizens
publish
##楊
abortion
qc
workplace
##hammer
sans
##ᅩ
soap
##lda
andes
attach
arts
mri
sometimes
##氏
1973
policies
ridges
hormone
##江
##ᄊ
##mania
##ট
gaze
ᅴ
trick
caf
ェ
##ups
ivy
glove
º
effectively
1868
bow
sake
##め
benign
isla
sworn
##illon
dress
nasa
##ud
interior
harper
⁄
helene
ʃ
sun
clue
says
sheet
##ppet
prototypes
##onzo
食
1980s
##tee
enrico
concession
san
##iter
cabin
louisiana
illegal
jake
frustrated
baltic
sector
1962
」
methodology
##cc
engraved
ء
consider
milan
rub
##ella
##ame
##met
howe
343
##rily
ᄌ
subjects
longitudinal
1978
virginia
urgently
∪
##stor
prize
##iology
traced
forward
1730
urgency
initial
meeting
##เ
ying
parades
##lian
retrieve
successful
##lle
⁺
exceptional
requesting
anymore
proposed
##llan
pollen
tuesday
bush
impress
23
demonstrates
艹
na
##dre
riddle
usa
##gai
##case
nad
candles
##ttle
authentication
spending
##ator
plug
universal
rival
##pling
urbana
##ic
understands
recall
##hart
breathing
##fusion
а
laugh
brand
hanging
union
department
poole
dune
##や
1970s
epidemic
provider
##同
patterns
brig
virgil
bas
2001
parcels
where
tobin
е
prevalence
##wc
ghost
ˤ
prevention
ins
allen
##hab
experiment
##geny
overseeing
varies
targeting
cassandra
variance
##kos
roderick
%
ai
person
##oth
##eti
legs
church
lanterns
ᅳ
440
minnesota
510
##tling
##g
mysterious
posted
horst
##mie
##bb
nell
hit
greeted
centuries
joaquin
bias
rig
##pee
##स
opus
##∞
muriel
##∂
stuck
##ado
localized
305
dominique
elijah
blanket
documentation
maiden
receipt
##jas
rfc
profiles
sheffield
##lies
1983
antenna
morales
layne
⊗
580
sponsoring
proving
photographs
additionally
dear
##zard
##』
ph
##aries
tray
ty
debate
##rous
₁
prairie
called
木
##hr
##esa
critics
96
muslims
870
1836
horizons
ulrich
cub
##rse
blair
watson
initiation
##die
partnership
soldiers
afford
##jia
lend
oskar
##ז
rifle
##fort
志
revue
##athi
118
##cker
wetlands
nope
##oud
share
##leigh
enables
martins
行
sunday
##lan
josie
military
##vik
##lem
basil
cereal
defend
##bic
energetic
##era
recordings
qatar
edward
stayed
line
nexus
mu
650
##champ
hosting
##get
sheridan
##ila
##`
indeed
popular
deaths
yelled
129
uss
pope
violet
1999
confront
##ου
aug
licenses
unconscious
##oya
##美
windows
##÷
##bound
##view
##olo
##tooth
switzerland
merit
sahara
sax
1974
##rch
elisabeth
circumstances
wrexham
sent
hotels
andre
presenting
seek
labrador
kenya
##oom
liar
##kov
4000
##game
gracie
##gano
far
##‒
carter
trauma
##alla
update
akbar
expectation
##tur
velocity
1300
applicant
tae
reyes
##drive
##men
##pop
cesar
appoint
##chers
##gly
pictures
門
##books
pulling
laszlo
##quel
あ
bois
##due
answer
1858
elton
skylar
diego
1873
##ɯ
##ə
states
antique
abe
ago
sheila
persons
us
unfair
sync
##]
hybrid
ting
##zes
pagan
##gul
indicates
margin
oslo
guidance
damn
broadway
cameras
##straße
117
正
##linger
##oso
ck
##ania
observed
##cycle
sainte
archery
toe
##va
travels
##worm
##ʊ
aspirations
webster
piccolo
keel
empowered
estimate
inspection
service
kumar
indigenous
##∈
jens
harvey
